{
  "version": "1.0",
  "truncation": null,
  "padding": null,
  "added_tokens": [
    {
      "id": 0,
      "content": "<|eot|>",
      "single_word": false,
      "lstrip": false,
      "rstrip": false,
      "normalized": false,
      "special": true
    },
    {
      "id": 1,
      "content": "<|pad|>",
      "single_word": false,
      "lstrip": false,
      "rstrip": false,
      "normalized": false,
      "special": true
    }
  ],
  "normalizer": {
    "type": "NFC"
  },
  "pre_tokenizer": {
    "type": "Sequence",
    "pretokenizers": [
      {
        "type": "Digits",
        "individual_digits": true
      },
      {
        "type": "ByteLevel",
        "add_prefix_space": false,
        "trim_offsets": true,
        "use_regex": true
      }
    ]
  },
  "post_processor": null,
  "decoder": {
    "type": "ByteLevel",
    "add_prefix_space": true,
    "trim_offsets": true,
    "use_regex": true
  },
  "model": {
    "type": "BPE",
    "dropout": null,
    "unk_token": null,
    "continuing_subword_prefix": null,
    "end_of_word_suffix": null,
    "fuse_unk": false,
    "byte_fallback": false,
    "ignore_merges": false,
    "vocab": {
      "<|eot|>": 0,
      "<|pad|>": 1,
      "!": 2,
      "\"": 3,
      "#": 4,
      "$": 5,
      "%": 6,
      "&": 7,
      "'": 8,
      "(": 9,
      ")": 10,
      "*": 11,
      "+": 12,
      ",": 13,
      "-": 14,
      ".": 15,
      "/": 16,
      "0": 17,
      "1": 18,
      "2": 19,
      "3": 20,
      "4": 21,
      "5": 22,
      "6": 23,
      "7": 24,
      "8": 25,
      "9": 26,
      ":": 27,
      ";": 28,
      "<": 29,
      "=": 30,
      ">": 31,
      "?": 32,
      "@": 33,
      "A": 34,
      "B": 35,
      "C": 36,
      "D": 37,
      "E": 38,
      "F": 39,
      "G": 40,
      "H": 41,
      "I": 42,
      "J": 43,
      "K": 44,
      "L": 45,
      "M": 46,
      "N": 47,
      "O": 48,
      "P": 49,
      "Q": 50,
      "R": 51,
      "S": 52,
      "T": 53,
      "U": 54,
      "V": 55,
      "W": 56,
      "X": 57,
      "Y": 58,
      "Z": 59,
      "[": 60,
      "\\": 61,
      "]": 62,
      "^": 63,
      "_": 64,
      "`": 65,
      "a": 66,
      "b": 67,
      "c": 68,
      "d": 69,
      "e": 70,
      "f": 71,
      "g": 72,
      "h": 73,
      "i": 74,
      "j": 75,
      "k": 76,
      "l": 77,
      "m": 78,
      "n": 79,
      "o": 80,
      "p": 81,
      "q": 82,
      "r": 83,
      "s": 84,
      "t": 85,
      "u": 86,
      "v": 87,
      "w": 88,
      "x": 89,
      "y": 90,
      "z": 91,
      "{": 92,
      "|": 93,
      "}": 94,
      "~": 95,
      "¡": 96,
      "¢": 97,
      "£": 98,
      "¤": 99,
      "¥": 100,
      "¦": 101,
      "§": 102,
      "¨": 103,
      "©": 104,
      "ª": 105,
      "«": 106,
      "¬": 107,
      "®": 108,
      "¯": 109,
      "°": 110,
      "±": 111,
      "²": 112,
      "³": 113,
      "´": 114,
      "µ": 115,
      "¶": 116,
      "·": 117,
      "¸": 118,
      "¹": 119,
      "º": 120,
      "»": 121,
      "¼": 122,
      "½": 123,
      "¾": 124,
      "¿": 125,
      "À": 126,
      "Á": 127,
      "Â": 128,
      "Ã": 129,
      "Ä": 130,
      "Å": 131,
      "Æ": 132,
      "Ç": 133,
      "È": 134,
      "É": 135,
      "Ê": 136,
      "Ë": 137,
      "Ì": 138,
      "Í": 139,
      "Î": 140,
      "Ï": 141,
      "Ð": 142,
      "Ñ": 143,
      "Ò": 144,
      "Ó": 145,
      "Ô": 146,
      "Õ": 147,
      "Ö": 148,
      "×": 149,
      "Ø": 150,
      "Ù": 151,
      "Ú": 152,
      "Û": 153,
      "Ü": 154,
      "Ý": 155,
      "Þ": 156,
      "ß": 157,
      "à": 158,
      "á": 159,
      "â": 160,
      "ã": 161,
      "ä": 162,
      "å": 163,
      "æ": 164,
      "ç": 165,
      "è": 166,
      "é": 167,
      "ê": 168,
      "ë": 169,
      "ì": 170,
      "í": 171,
      "î": 172,
      "ï": 173,
      "ð": 174,
      "ñ": 175,
      "ò": 176,
      "ó": 177,
      "ô": 178,
      "õ": 179,
      "ö": 180,
      "÷": 181,
      "ø": 182,
      "ù": 183,
      "ú": 184,
      "û": 185,
      "ü": 186,
      "ý": 187,
      "þ": 188,
      "ÿ": 189,
      "Ā": 190,
      "ā": 191,
      "Ă": 192,
      "ă": 193,
      "Ą": 194,
      "ą": 195,
      "Ć": 196,
      "ć": 197,
      "Ĉ": 198,
      "ĉ": 199,
      "Ċ": 200,
      "ċ": 201,
      "Č": 202,
      "č": 203,
      "Ď": 204,
      "ď": 205,
      "Đ": 206,
      "đ": 207,
      "Ē": 208,
      "ē": 209,
      "Ĕ": 210,
      "ĕ": 211,
      "Ė": 212,
      "ė": 213,
      "Ę": 214,
      "ę": 215,
      "Ě": 216,
      "ě": 217,
      "Ĝ": 218,
      "ĝ": 219,
      "Ğ": 220,
      "ğ": 221,
      "Ġ": 222,
      "ġ": 223,
      "Ģ": 224,
      "ģ": 225,
      "Ĥ": 226,
      "ĥ": 227,
      "Ħ": 228,
      "ħ": 229,
      "Ĩ": 230,
      "ĩ": 231,
      "Ī": 232,
      "ī": 233,
      "Ĭ": 234,
      "ĭ": 235,
      "Į": 236,
      "į": 237,
      "İ": 238,
      "ı": 239,
      "Ĳ": 240,
      "ĳ": 241,
      "Ĵ": 242,
      "ĵ": 243,
      "Ķ": 244,
      "ķ": 245,
      "ĸ": 246,
      "Ĺ": 247,
      "ĺ": 248,
      "Ļ": 249,
      "ļ": 250,
      "Ľ": 251,
      "ľ": 252,
      "Ŀ": 253,
      "ŀ": 254,
      "Ł": 255,
      "ł": 256,
      "Ń": 257,
      "Ġa": 258,
      "Ġt": 259,
      "en": 260,
      "es": 261,
      "er": 262,
      "Ġd": 263,
      "in": 264,
      "on": 265,
      "Ġc": 266,
      "Ġs": 267,
      "Ġp": 268,
      "Ġl": 269,
      "or": 270,
      "ar": 271,
      "Ġde": 272,
      "os": 273,
      "Ġth": 274,
      "an": 275,
      "as": 276,
      "re": 277,
      "al": 278,
      "ti": 279,
      "Ġm": 280,
      "Ġo": 281,
      "Ġthe": 282,
      "Ġe": 283,
      "ci": 284,
      "is": 285,
      "ed": 286,
      "ent": 287,
      "Ġf": 288,
      "ad": 289,
      "at": 290,
      "un": 291,
      "Ġin": 292,
      "ro": 293,
      "Ġh": 294,
      "Ġb": 295,
      "Ġw": 296,
      "it": 297,
      "qu": 298,
      "ic": 299,
      "Ġan": 300,
      "Ġla": 301,
      "Ġof": 302,
      "Ã³": 303,
      "om": 304,
      "Ġn": 305,
      "Ġy": 306,
      "ing": 307,
      "Ġen": 308,
      "le": 309,
      "Ġto": 310,
      "Ġqu": 311,
      "id": 312,
      "Ġand": 313,
      "us": 314,
      "Ġcon": 315,
      "Ġel": 316,
      "Ġes": 317,
      "ur": 318,
      "am": 319,
      "Ġque": 320,
      "Ġun": 321,
      "Ġre": 322,
      "el": 323,
      "ec": 324,
      "ÃŃ": 325,
      "ol": 326,
      "tion": 327,
      "il": 328,
      "Ã³n": 329,
      "ul": 330,
      "im": 331,
      "Ġg": 332,
      "ac": 333,
      "tr": 334,
      "Ġse": 335,
      "Ã¡": 336,
      "Ġv": 337,
      "te": 338,
      "ta": 339,
      "ĠA": 340,
      "ĠS": 341,
      "ĠC": 342,
      "res": 343,
      "ig": 344,
      "Ġal": 345,
      "Ġlos": 346,
      "aci": 347,
      "ir": 348,
      "ĠT": 349,
      "Ġpro": 350,
      "ter": 351,
      "Ġcom": 352,
      "th": 353,
      "ab": 354,
      "Ġsu": 355,
      "ĠE": 356,
      "Ġpar": 357,
      "Ã©": 358,
      "to": 359,
      "ers": 360,
      "em": 361,
      "âĢ": 362,
      "do": 363,
      "ĠP": 364,
      "Ġno": 365,
      "Ġfor": 366,
      "ch": 367,
      "Ġis": 368,
      "ve": 369,
      "Ġ(": 370,
      "ut": 371,
      "ĠM": 372,
      "Ġdel": 373,
      "ation": 374,
      "ĠI": 375,
      "ay": 376,
      "Ġbe": 377,
      "ly": 378,
      "ce": 379,
      "he": 380,
      "Ġas": 381,
      "ĠL": 382,
      "Ġex": 383,
      "Ġlas": 384,
      "ente": 385,
      "lo": 386,
      "ra": 387,
      "ado": 388,
      "od": 389,
      "um": 390,
      "iv": 391,
      "Ġon": 392,
      "ud": 393,
      "Ġthat": 394,
      "ĠD": 395,
      "Ġpor": 396,
      "aciÃ³n": 397,
      "Ġor": 398,
      "Ġwh": 399,
      "tic": 400,
      "ia": 401,
      "io": 402,
      "Ġuna": 403,
      "ĠB": 404,
      "et": 405,
      "if": 406,
      "ib": 407,
      "Ġr": 408,
      "Ġpara": 409,
      "ith": 410,
      "ts": 411,
      "ÃŃa": 412,
      "ver": 413,
      "ĠH": 414,
      "ĠR": 415,
      "ue": 416,
      "Ġtr": 417,
      "Ġac": 418,
      "uc": 419,
      "iz": 420,
      "ag": 421,
      "Ġdes": 422,
      "and": 423,
      "ere": 424,
      "Ġlo": 425,
      "Ã±": 426,
      "ici": 427,
      "ĠN": 428,
      "Ġwith": 429,
      "ones": 430,
      "Ġare": 431,
      "ien": 432,
      "ap": 433,
      "Ġres": 434,
      "Ġso": 435,
      "ĠF": 436,
      "ist": 437,
      "ient": 438,
      "Ġit": 439,
      "ow": 440,
      "Ġest": 441,
      "op": 442,
      "ĠG": 443,
      "ill": 444,
      "Ġcu": 445,
      "Ġle": 446,
      "ou": 447,
      "ate": 448,
      "Ġper": 449,
      "Ġpu": 450,
      "Ġpr": 451,
      "st": 452,
      "Ġus": 453,
      "Ã¡s": 454,
      "por": 455,
      "tiv": 456,
      "pe": 457,
      "ant": 458,
      "end": 459,
      "rom": 460,
      "ion": 461,
      "pl": 462,
      "per": 463,
      "ĠW": 464,
      "ĠThe": 465,
      "Ġha": 466,
      "Ġat": 467,
      "ment": 468,
      "ada": 469,
      "est": 470,
      "ess": 471,
      "Ġim": 472,
      "ciÃ³n": 473,
      "ier": 474,
      "Ãº": 475,
      "idad": 476,
      "oc": 477,
      "se": 478,
      "for": 479,
      "Ġby": 480,
      "Ġst": 481,
      "ĠU": 482,
      "ĠJ": 483,
      "ales": 484,
      "Ġch": 485,
      "und": 486,
      "igh": 487,
      "Ġj": 488,
      "our": 489,
      "ity": 490,
      "ear": 491,
      "Ġdis": 492,
      "enci": 493,
      "Ġwas": 494,
      "Ġab": 495,
      "ect": 496,
      "Ġcomp": 497,
      "up": 498,
      "Ġ\"": 499,
      "ug": 500,
      "ma": 501,
      "ĠIn": 502,
      "og": 503,
      "Ġser": 504,
      "ip": 505,
      "Ġcomo": 506,
      "Ġcan": 507,
      "Ġad": 508,
      "Ġfrom": 509,
      "ĠO": 510,
      "ie": 511,
      "ando": 512,
      "cl": 513,
      "mo": 514,
      "ica": 515,
      "Ġmu": 516,
      "Ġar": 517,
      "ke": 518,
      "all": 519,
      "Ġme": 520,
      "Ġcons": 521,
      "Ġpl": 522,
      "de": 523,
      "ĠâĢ": 524,
      "ens": 525,
      "Ġne": 526,
      "Ġap": 527,
      "ados": 528,
      "duc": 529,
      "ther": 530,
      "ies": 531,
      "go": 532,
      "Ġpre": 533,
      "aj": 534,
      "Ġpued": 535,
      "tu": 536,
      "ge": 537,
      "ĠmÃ¡s": 538,
      "bre": 539,
      "ich": 540,
      "ios": 541,
      "Ġco": 542,
      "ome": 543,
      "bl": 544,
      "ot": 545,
      "ans": 546,
      "Ã¡n": 547,
      "ell": 548,
      "fer": 549,
      "ard": 550,
      "Ġman": 551,
      "Ġhave": 552,
      "era": 553,
      "Ġnot": 554,
      "ore": 555,
      "Ġsh": 556,
      "port": 557,
      "ante": 558,
      "Ġhe": 559,
      "iti": 560,
      "ine": 561,
      "Ġgr": 562,
      "Ġent": 563,
      "ener": 564,
      "Ġem": 565,
      "Ġcl": 566,
      "iÃ³n": 567,
      "ally": 568,
      "Ġcont": 569,
      "Ġsus": 570,
      "iento": 571,
      "ores": 572,
      "Ġhas": 573,
      "ost": 574,
      "ido": 575,
      "âĢĻ": 576,
      "ces": 577,
      "ide": 578,
      "ech": 579,
      "'s": 580,
      "av": 581,
      "Ġthis": 582,
      "que": 583,
      "so": 584,
      ").": 585,
      "ico": 586,
      "gr": 587,
      "Ġinter": 588,
      "uld": 589,
      "ated": 590,
      "Ġrec": 591,
      "amb": 592,
      "ĠTh": 593,
      "Ġcar": 594,
      "form": 595,
      "Ġob": 596,
      "gu": 597,
      "Ġyou": 598,
      "ble": 599,
      "ber": 600,
      "âĢĿ": 601,
      "..": 602,
      "Ġwor": 603,
      "amente": 604,
      "Ġpres": 605,
      "Ġmay": 606,
      "Ġwe": 607,
      "encia": 608,
      "ater": 609,
      "Ġpers": 610,
      "ign": 611,
      "ĠV": 612,
      "able": 613,
      "ure": 614,
      "ight": 615,
      "ase": 616,
      "ult": 617,
      "ong": 618,
      "The": 619,
      "ach": 620,
      "ire": 621,
      "til": 622,
      "tra": 623,
      "Ġmed": 624,
      "ĠUn": 625,
      "ast": 626,
      "ero": 627,
      "Ã©n": 628,
      "ĠEn": 629,
      "Ġev": 630,
      "Ġk": 631,
      "Ġesta": 632,
      "aus": 633,
      "lec": 634,
      "ted": 635,
      "Ġte": 636,
      "Ġwhich": 637,
      "Ġtheir": 638,
      "ain": 639,
      "Ã©s": 640,
      "out": 641,
      "enti": 642,
      "ĠEl": 643,
      "ys": 644,
      "Ġpos": 645,
      "ace": 646,
      "ical": 647,
      "ina": 648,
      "la": 649,
      "Ġperson": 650,
      "ary": 651,
      "ff": 652,
      "uer": 653,
      "ĠâĢľ": 654,
      "mente": 655,
      "ak": 656,
      "ple": 657,
      "vel": 658,
      "Ġgo": 659,
      "con": 660,
      "Ġpe": 661,
      "Ġam": 662,
      "Ġmo": 663,
      "ĠK": 664,
      "ish": 665,
      "ents": 666,
      "der": 667,
      "tor": 668,
      "Ġsi": 669,
      "ence": 670,
      "Ġthey": 671,
      "min": 672,
      "Ġcre": 673,
      "Ġdif": 674,
      "par": 675,
      "Ġson": 676,
      "ida": 677,
      "pres": 678,
      "ese": 679,
      "ĠLa": 680,
      "rol": 681,
      "po": 682,
      "tions": 683,
      "Ġmore": 684,
      "ular": 685,
      "peci": 686,
      "Ġwere": 687,
      "Ġhab": 688,
      "Ġcor": 689,
      "ial": 690,
      "co": 691,
      "ose": 692,
      "ĠCh": 693,
      "Ġcol": 694,
      "cr": 695,
      "Ġwill": 696,
      "ould": 697,
      "ian": 698,
      "pu": 699,
      "aciones": 700,
      "ual": 701,
      "ks": 702,
      "ons": 703,
      "ĠEs": 704,
      "Ġpuede": 705,
      "les": 706,
      "cu": 707,
      "ations": 708,
      "Ġincl": 709,
      "tive": 710,
      "Ġ-": 711,
      "ĠY": 712,
      "age": 713,
      "fic": 714,
      "ite": 715,
      "Ġall": 716,
      "Ġreg": 717,
      "ame": 718,
      "Ġind": 719,
      "olog": 720,
      "one": 721,
      "Ġcr": 722,
      "ild": 723,
      "Ã±os": 724,
      "),": 725,
      "Ġbut": 726,
      "ph": 727,
      "za": 728,
      "ust": 729,
      "Ġsin": 730,
      "Ġins": 731,
      "Ġtod": 732,
      "gun": 733,
      "Ġfin": 734,
      "Ġdo": 735,
      "adas": 736,
      "Ġsobre": 737,
      "ath": 738,
      "man": 739,
      "br": 740,
      "gan": 741,
      "ambi": 742,
      "ord": 743,
      "Ġrel": 744,
      "Ġver": 745,
      "Ġcas": 746,
      "Ġro": 747,
      "tem": 748,
      "Ġdeb": 749,
      "cul": 750,
      "ne": 751,
      "low": 752,
      "ass": 753,
      "Ġmis": 754,
      "ely": 755,
      "dad": 756,
      "Ġone": 757,
      "ven": 758,
      "Ġsome": 759,
      "pos": 760,
      "ĠAl": 761,
      "ive": 762,
      "ance": 763,
      "Ġsol": 764,
      "ang": 765,
      "ice": 766,
      "jo": 767,
      "mer": 768,
      "Ġtien": 769,
      "Ġhis": 770,
      "ene": 771,
      "Ġyour": 772,
      "Ġmuch": 773,
      "ied": 774,
      "Ġag": 775,
      "ĠRe": 776,
      "Ġother": 777,
      "az": 778,
      "Ġinf": 779,
      "eces": 780,
      "erv": 781,
      "Ġinv": 782,
      "cer": 783,
      "Ġpol": 784,
      "ible": 785,
      "ĠAn": 786,
      "Ġdur": 787,
      "aliz": 788,
      "El": 789,
      "ÃŃs": 790,
      "ack": 791,
      "ous": 792,
      "Ġalso": 793,
      "Ġinform": 794,
      "ond": 795,
      "entes": 796,
      "tos": 797,
      "ten": 798,
      "ambiÃ©n": 799,
      "Ã±o": 800,
      "ura": 801,
      "Ġfr": 802,
      "Ġform": 803,
      "ivers": 804,
      "Ãºn": 805,
      "ario": 806,
      "ew": 807,
      "tros": 808,
      "Ġwho": 809,
      "Ġter": 810,
      "tim": 811,
      "Ġprim": 812,
      "ugh": 813,
      "ition": 814,
      "Ġmar": 815,
      "cre": 816,
      "pro": 817,
      "Ġproduc": 818,
      "ates": 819,
      "Ġabout": 820,
      "Ġaf": 821,
      "act": 822,
      "tes": 823,
      "Ġits": 824,
      "Ġentre": 825,
      "ile": 826,
      "Ġfo": 827,
      "ias": 828,
      "Ġstud": 829,
      "tain": 830,
      "Ġout": 831,
      "ador": 832,
      "Ġtim": 833,
      "Ġgener": 834,
      "tern": 835,
      "Ġpod": 836,
      "ues": 837,
      "Ġup": 838,
      "ĠSe": 839,
      "Ġve": 840,
      "ory": 841,
      "Ġresp": 842,
      "du": 843,
      "Ġbo": 844,
      "La": 845,
      "Ġsp": 846,
      "Ġpo": 847,
      "ior": 848,
      "ty": 849,
      "ican": 850,
      "Ġthan": 851,
      "ok": 852,
      "Ġoc": 853,
      "cep": 854,
      "Ġyear": 855,
      "cid": 856,
      "cip": 857,
      "orm": 858,
      "Ġeste": 859,
      "truc": 860,
      "ca": 861,
      "Ġsa": 862,
      "ento": 863,
      "are": 864,
      "Ġsal": 865,
      "ciones": 866,
      "ren": 867,
      "cia": 868,
      "ras": 869,
      "Ġbeen": 870,
      "Ġprov": 871,
      "ays": 872,
      "Ġni": 873,
      "Ġmen": 874,
      "ld": 875,
      "reat": 876,
      "ĠÂ": 877,
      "Ġdi": 878,
      "Ġpero": 879,
      "Ġbec": 880,
      "Ġimport": 881,
      "Ġcomm": 882,
      "Ġop": 883,
      "ĠSt": 884,
      "Ġtrans": 885,
      "pa": 886,
      "iÃ³": 887,
      "ced": 888,
      "now": 889,
      "no": 890,
      "Ġfue": 891,
      "ree": 892,
      "aron": 893,
      "Ġthem": 894,
      "Ġcap": 895,
      "Ġhad": 896,
      "amiento": 897,
      "ake": 898,
      "almente": 899,
      "Ġu": 900,
      "ĠDe": 901,
      "tro": 902,
      "cess": 903,
      "iem": 904,
      "Ġsec": 905,
      "ings": 906,
      "ara": 907,
      "ÃŃn": 908,
      "atur": 909,
      "Ġgro": 910,
      "gh": 911,
      "Ġcaus": 912,
      "arse": 913,
      "Ġtra": 914,
      "Ġpa": 915,
      "Ġmod": 916,
      "ga": 917,
      "med": 918,
      "ĠIt": 919,
      "Ġinto": 920,
      "va": 921,
      "erg": 922,
      "Ġthere": 923,
      "ople": 924,
      "ĠtambiÃ©n": 925,
      "Ġfir": 926,
      "vo": 927,
      "Ġej": 928,
      "ran": 929,
      "Ġdef": 930,
      "ational": 931,
      "Ġhum": 932,
      "Ġher": 933,
      "Ġplan": 934,
      "Ġsoci": 935,
      "ind": 936,
      "Ġsub": 937,
      "gram": 938,
      "titu": 939,
      "Ġcuando": 940,
      "ĠAs": 941,
      "tica": 942,
      "cion": 943,
      "ific": 944,
      "Ġdem": 945,
      "Ġproble": 946,
      "ĠCom": 947,
      "rit": 948,
      "ting": 949,
      "ade": 950,
      "Ġdos": 951,
      "sion": 952,
      "Ġover": 953,
      "Ġsur": 954,
      "Ġlle": 955,
      "Ġthese": 956,
      "wn": 957,
      "Ġwhen": 958,
      "Ġbu": 959,
      "oci": 960,
      "irec": 961,
      "lam": 962,
      "antes": 963,
      "ough": 964,
      "Ġtu": 965,
      "plic": 966,
      "Ġtem": 967,
      "itar": 968,
      "Ġvar": 969,
      "rough": 970,
      "En": 971,
      "Ġsim": 972,
      "Ġwould": 973,
      "we": 974,
      "wo": 975,
      "Ġcent": 976,
      "alth": 977,
      "ĠCon": 978,
      "Ġnew": 979,
      "acion": 980,
      "icos": 981,
      "Ġhac": 982,
      "Ġfam": 983,
      "enta": 984,
      "Ġli": 985,
      "Ġtime": 986,
      "In": 987,
      "Ġuse": 988,
      "ors": 989,
      "ĠAr": 990,
      "Ã©r": 991,
      "Ġwork": 992,
      "Ġpueden": 993,
      "Ġmost": 994,
      "pr": 995,
      "ÃŃan": 996,
      "Ġsign": 997,
      "ĠestÃ¡": 998,
      "Ġpeople": 999,
      "com": 1000,
      "ata": 1001,
      "lu": 1002,
      "Ġvis": 1003,
      "ĠLos": 1004,
      "ĠEst": 1005,
      "ÃŃas": 1006,
      "Ġsig": 1007,
      "ajo": 1008,
      "Ġcual": 1009,
      "velop": 1010,
      "Ġlar": 1011,
      "ĠHe": 1012,
      "Ġfe": 1013,
      "Ġra": 1014,
      "idos": 1015,
      "iel": 1016,
      "ĠThis": 1017,
      "Ġpas": 1018,
      "Ġbet": 1019,
      "Ġsuch": 1020,
      "los": 1021,
      "Ġdon": 1022,
      "Ġten": 1023,
      "Ġinclud": 1024,
      "Ġequ": 1025,
      "fici": 1026,
      "Ġph": 1027,
      "ba": 1028,
      "iciÃ³n": 1029,
      "als": 1030,
      "Ġprin": 1031,
      "Ġfun": 1032,
      "esti": 1033,
      "Ġhow": 1034,
      "Ġneces": 1035,
      "red": 1036,
      "Ġcal": 1037,
      "earch": 1038,
      "ider": 1039,
      "Ġknow": 1040,
      "Ġhigh": 1041,
      "Ġparti": 1042,
      "Ġcam": 1043,
      "Ġprop": 1044,
      "fr": 1045,
      "ĠMar": 1046,
      "ities": 1047,
      "ĠmÃ©": 1048,
      "Ġmon": 1049,
      "Ġany": 1050,
      "Ġder": 1051,
      "ĠaÃ±os": 1052,
      "ystem": 1053,
      "Ġlib": 1054,
      "tivo": 1055,
      "Ġtrab": 1056,
      "Ġstr": 1057,
      "Ġhist": 1058,
      "ating": 1059,
      "Ġhel": 1060,
      "Ġonly": 1061,
      "cho": 1062,
      "ino": 1063,
      "Ġcontr": 1064,
      "Ġif": 1065,
      "ĠPro": 1066,
      "Ġtan": 1067,
      "Ġsup": 1068,
      "Ġfirst": 1069,
      "Ġexper": 1070,
      "aba": 1071,
      "pend": 1072,
      "Ġcomple": 1073,
      "entos": 1074,
      "ning": 1075,
      "idades": 1076,
      "Th": 1077,
      "Ġchild": 1078,
      "ins": 1079,
      "ito": 1080,
      "Ġtiene": 1081,
      "ton": 1082,
      "ĠÃ©": 1083,
      "Ġalgun": 1084,
      "bar": 1085,
      "Ġserv": 1086,
      "iste": 1087,
      "ick": 1088,
      "Ġspeci": 1089,
      "Ġfamil": 1090,
      "Ġorgan": 1091,
      "ros": 1092,
      "emp": 1093,
      "iones": 1094,
      "ĠNo": 1095,
      "amos": 1096,
      "Ġbas": 1097,
      "Ġval": 1098,
      "Ġtwo": 1099,
      "ano": 1100,
      "cal": 1101,
      "je": 1102,
      "Ġint": 1103,
      "Ġdirec": 1104,
      "Ġactiv": 1105,
      "Ġdevelop": 1106,
      "Ġpubl": 1107,
      "Ġprogram": 1108,
      "Ġused": 1109,
      "echo": 1110,
      "Ġparte": 1111,
      "gen": 1112,
      "Ġcond": 1113,
      "uel": 1114,
      "Ġmin": 1115,
      "Ġproblem": 1116,
      "ora": 1117,
      "tis": 1118,
      "Ġfuer": 1119,
      "Ġdeci": 1120,
      "cent": 1121,
      "Ġour": 1122,
      "ds": 1123,
      "Ġmany": 1124,
      "uro": 1125,
      "ĠWh": 1126,
      "iente": 1127,
      "land": 1128,
      "cur": 1129,
      "ĠAmer": 1130,
      "Ġneed": 1131,
      "ful": 1132,
      "Ġmayor": 1133,
      "tico": 1134,
      "emos": 1135,
      "Ġwhat": 1136,
      "eros": 1137,
      "Ġthrough": 1138,
      "Ġconf": 1139,
      "tas": 1140,
      "ved": 1141,
      "Ġdr": 1142,
      "las": 1143,
      "tras": 1144,
      "Ġcontin": 1145,
      "Ġhay": 1146,
      "Ġesp": 1147,
      "Ġutil": 1148,
      "ustr": 1149,
      "Ġespeci": 1150,
      "Ġnue": 1151,
      "Ġyears": 1152,
      "Ġseg": 1153,
      "ub": 1154,
      "Ġtrat": 1155,
      "uy": 1156,
      "ep": 1157,
      "Ġmuy": 1158,
      "||": 1159,
      "Ġexp": 1160,
      "Ġelec": 1161,
      "Ġrequ": 1162,
      "ex": 1163,
      "puÃ©s": 1164,
      "Ġtodo": 1165,
      "car": 1166,
      "Ġexam": 1167,
      "vis": 1168,
      "Ġcer": 1169,
      "ause": 1170,
      "ement": 1171,
      "Ġresult": 1172,
      "iendo": 1173,
      "Ġtiem": 1174,
      "oy": 1175,
      "ife": 1176,
      "tar": 1177,
      "Ġhom": 1178,
      "Ġay": 1179,
      "ink": 1180,
      "ters": 1181,
      "ÃŃcul": 1182,
      "Ġcoun": 1183,
      "very": 1184,
      "icas": 1185,
      "Ġef": 1186,
      "Ġnum": 1187,
      "me": 1188,
      ".\"": 1189,
      "olu": 1190,
      "ited": 1191,
      "Ġcontrol": 1192,
      "ipo": 1193,
      "Ġhacer": 1194,
      "Ġsystem": 1195,
      "Ġprof": 1196,
      "adores": 1197,
      "ft": 1198,
      "Ġya": 1199,
      "Ġincre": 1200,
      "Ġpersonas": 1201,
      "Ġdoc": 1202,
      "ĠmÃ©d": 1203,
      "Ġele": 1204,
      "Ġdurante": 1205,
      "tur": 1206,
      "arrol": 1207,
      "ivid": 1208,
      "Ġforma": 1209,
      "Ġhasta": 1210,
      "Ġconsider": 1211,
      "Ġeff": 1212,
      "tal": 1213,
      "tom": 1214,
      "Ġcos": 1215,
      "Ġdiffer": 1216,
      "Ġhuman": 1217,
      "ween": 1218,
      "Ġdist": 1219,
      "Ġext": 1220,
      "its": 1221,
      "Ġmej": 1222,
      "Ġshould": 1223,
      "ects": 1224,
      "Ġmil": 1225,
      "acter": 1226,
      "Es": 1227,
      "Ġayud": 1228,
      "Ġear": 1229,
      "istr": 1230,
      "Ġaut": 1231,
      "Ġadd": 1232,
      "Ġtiempo": 1233,
      "Ġcould": 1234,
      "Ġotros": 1235,
      "Ġwater": 1236,
      "Ġhelp": 1237,
      "Ġtodos": 1238,
      "ato": 1239,
      "ology": 1240,
      "fore": 1241,
      "ments": 1242,
      "Ġvez": 1243,
      "Ġprincip": 1244,
      "Ġmater": 1245,
      "ise": 1246,
      "ita": 1247,
      "Ġecon": 1248,
      "Ġcada": 1249,
      "Ġbetween": 1250,
      "Ġcur": 1251,
      "Ġtom": 1252,
      "ĠLe": 1253,
      "Ġvol": 1254,
      "Ġutiliz": 1255,
      "oun": 1256,
      "ism": 1257,
      "arÃ¡": 1258,
      "crib": 1259,
      "Ġbr": 1260,
      "Ġhi": 1261,
      "Ġera": 1262,
      "ital": 1263,
      "Ġestud": 1264,
      "ĠÂ¿": 1265,
      "Ġpresent": 1266,
      "Ġwell": 1267,
      "ture": 1268,
      ".,": 1269,
      "chool": 1270,
      "ena": 1271,
      "int": 1272,
      "ange": 1273,
      "Los": 1274,
      "lar": 1275,
      "Ġlike": 1276,
      "ves": 1277,
      "Ġsit": 1278,
      "Ġdeter": 1279,
      "Ġsaid": 1280,
      "Ġdesarrol": 1281,
      "iew": 1282,
      "Ġide": 1283,
      "na": 1284,
      "\".": 1285,
      "ator": 1286,
      "ry": 1287,
      "ista": 1288,
      "Ġimp": 1289,
      "imiento": 1290,
      "Ġmill": 1291,
      "tiva": 1292,
      "Ġfound": 1293,
      "quier": 1294,
      "ork": 1295,
      "da": 1296,
      "ress": 1297,
      "Ġref": 1298,
      "ecu": 1299,
      "gar": 1300,
      "Ġwhere": 1301,
      "orn": 1302,
      "Ġsuper": 1303,
      "uth": 1304,
      "Ġresearch": 1305,
      "cy": 1306,
      "abil": 1307,
      "ck": 1308,
      "own": 1309,
      "Ġdesde": 1310,
      "Ġid": 1311,
      "ĠâĢĵ": 1312,
      "vern": 1313,
      "Ġpart": 1314,
      "ever": 1315,
      "Ġlong": 1316,
      "ger": 1317,
      "den": 1318,
      "ugar": 1319,
      "Ġhan": 1320,
      "Ġcall": 1321,
      "Ġreci": 1322,
      "ientos": 1323,
      "lan": 1324,
      "erci": 1325,
      "Ġbien": 1326,
      "Ġrealiz": 1327,
      "ob": 1328,
      "Ġfol": 1329,
      "elf": 1330,
      "ject": 1331,
      "ĠPar": 1332,
      "Ġunder": 1333,
      "ades": 1334,
      "tical": 1335,
      "Ġactu": 1336,
      "Ġafter": 1337,
      "ismo": 1338,
      "Ġer": 1339,
      "ana": 1340,
      "Ġblo": 1341,
      "iar": 1342,
      "ale": 1343,
      "vir": 1344,
      "ĠNew": 1345,
      "Ġnatur": 1346,
      "--": 1347,
      "Ġgu": 1348,
      "Ġembar": 1349,
      "endo": 1350,
      "ecto": 1351,
      "ĠFor": 1352,
      "ĠSi": 1353,
      "Ġass": 1354,
      "Ġpop": 1355,
      "ja": 1356,
      "Ġvida": 1357,
      "ature": 1358,
      "Ġbel": 1359,
      "Ġmi": 1360,
      "arm": 1361,
      "Ġperm": 1362,
      "ĠIs": 1363,
      "omin": 1364,
      "ĠdespuÃ©s": 1365,
      "the": 1366,
      "Ġdise": 1367,
      "miento": 1368,
      "idas": 1369,
      "echn": 1370,
      "ĠAc": 1371,
      "ientes": 1372,
      "Ġinformation": 1373,
      "ĠAd": 1374,
      "ps": 1375,
      "Ġllam": 1376,
      "gl": 1377,
      "ĠÃ¡": 1378,
      "Ġreal": 1379,
      "Ã³lo": 1380,
      "tle": 1381,
      "Ġenerg": 1382,
      "Ġhealth": 1383,
      "ĠPor": 1384,
      "Ġthose": 1385,
      "Ġleg": 1386,
      "ris": 1387,
      "ĠestÃ¡n": 1388,
      "vers": 1389,
      "uch": 1390,
      "Ġbecause": 1391,
      "ines": 1392,
      "round": 1393,
      "ious": 1394,
      "unto": 1395,
      "Ã±a": 1396,
      "Ġanti": 1397,
      "ental": 1398,
      "bo": 1399,
      "Ġdifer": 1400,
      "Ġexpl": 1401,
      "Ġmem": 1402,
      "Ġorig": 1403,
      "Ġaqu": 1404,
      "ĠpaÃŃs": 1405,
      "ĠUnivers": 1406,
      "Ġsea": 1407,
      "acia": 1408,
      "Ġdonde": 1409,
      "Ġsta": 1410,
      "Ã³m": 1411,
      "Qu": 1412,
      "uego": 1413,
      "Ġvery": 1414,
      "Ġcontra": 1415,
      "Ġmedic": 1416,
      "ticas": 1417,
      "Ġrepres": 1418,
      "Ġcir": 1419,
      "arios": 1420,
      "Ġmov": 1421,
      "Ġworld": 1422,
      "jer": 1423,
      "Ġgeneral": 1424,
      "Ġ.": 1425,
      "xim": 1426,
      "Ġmake": 1427,
      "Ġprodu": 1428,
      "Ġuno": 1429,
      "Ġmejor": 1430,
      "nos": 1431,
      "...": 1432,
      "Ġfre": 1433,
      "Ġorganiz": 1434,
      "Ġthen": 1435,
      "sh": 1436,
      "be": 1437,
      "Ġobs": 1438,
      "\",": 1439,
      "Ġlim": 1440,
      "tivos": 1441,
      "ower": 1442,
      "Ġpodr": 1443,
      "led": 1444,
      "Ġeven": 1445,
      "ibu": 1446,
      "Ġmismo": 1447,
      "Ġgran": 1448,
      "Ġdebe": 1449,
      "Ġeduc": 1450,
      "acional": 1451,
      "Ġpublic": 1452,
      "van": 1453,
      "Ġsm": 1454,
      "ave": 1455,
      "jos": 1456,
      "ward": 1457,
      "atr": 1458,
      "ĠTr": 1459,
      "ĠWe": 1460,
      "Ġsee": 1461,
      "Ġget": 1462,
      "ety": 1463,
      "old": 1464,
      "Ġrad": 1465,
      "Ġlugar": 1466,
      "ym": 1467,
      "ather": 1468,
      "can": 1469,
      "ama": 1470,
      "Ġty": 1471,
      "ail": 1472,
      "art": 1473,
      "Ġcab": 1474,
      "Ġles": 1475,
      "âĢĶ": 1476,
      "ender": 1477,
      "aje": 1478,
      "ĠinformaciÃ³n": 1479,
      "Ġz": 1480,
      "Ġcomun": 1481,
      "Ġir": 1482,
      "Ġsci": 1483,
      "ness": 1484,
      "ĠasÃŃ": 1485,
      "Ġlit": 1486,
      "inal": 1487,
      "ĠLas": 1488,
      "cil": 1489,
      "Ġduring": 1490,
      "Ġnos": 1491,
      "Ġprev": 1492,
      "Ġenfer": 1493,
      "Ġindivid": 1494,
      "ieron": 1495,
      "Ġagu": 1496,
      "tir": 1497,
      "Ġoper": 1498,
      "ĠlÃŃ": 1499,
      "Ġeach": 1500,
      "Â¿": 1501,
      "Ġpartic": 1502,
      "ww": 1503,
      "undo": 1504,
      "Ġway": 1505,
      "Ġfac": 1506,
      "Ġchildren": 1507,
      "oh": 1508,
      "omen": 1509,
      ",\"": 1510,
      "thing": 1511,
      "Ġmade": 1512,
      "ices": 1513,
      "estig": 1514,
      "Ġgra": 1515,
      "ĠX": 1516,
      "Wh": 1517,
      "encias": 1518,
      "iol": 1519,
      "Ġantes": 1520,
      "Ġusted": 1521,
      "Ġanim": 1522,
      "istema": 1523,
      "ĠÃº": 1524,
      "Ġet": 1525,
      "Ġexist": 1526,
      "Ġend": 1527,
      "ges": 1528,
      "Ġsigu": 1529,
      "ument": 1530,
      "Ġbeing": 1531,
      "Ġlife": 1532,
      "ions": 1533,
      "Ġprot": 1534,
      "ently": 1535,
      "Ġnorm": 1536,
      "Ġsab": 1537,
      "Ġhistor": 1538,
      "ased": 1539,
      "....": 1540,
      "pre": 1541,
      "anci": 1542,
      "Ġsame": 1543,
      "rop": 1544,
      "Ġfollow": 1545,
      "ics": 1546,
      "Ġporque": 1547,
      "unt": 1548,
      "Ġcuer": 1549,
      "Ġjust": 1550,
      "Ġke": 1551,
      "gra": 1552,
      "Ġpal": 1553,
      "Ġevery": 1554,
      "Ġmas": 1555,
      "Ġtienen": 1556,
      "ona": 1557,
      "ece": 1558,
      "Ġstudy": 1559,
      "Ġown": 1560,
      "Ãºs": 1561,
      "ĠAmerican": 1562,
      "Ġmus": 1563,
      "ĠCol": 1564,
      "ĠEx": 1565,
      "Ġbus": 1566,
      "Ġsocial": 1567,
      "Ġtanto": 1568,
      "Ġset": 1569,
      "Ġnor": 1570,
      "Ġcountr": 1571,
      "atos": 1572,
      "Ġ[": 1573,
      "ĠMed": 1574,
      "ished": 1575,
      "Ã©c": 1576,
      "Ġfund": 1577,
      "Ġed": 1578,
      "ides": 1579,
      "emplo": 1580,
      ".âĢĿ": 1581,
      "iud": 1582,
      "Ġestos": 1583,
      "'t": 1584,
      "Ġhim": 1585,
      "ĠOr": 1586,
      "Ġfu": 1587,
      "Ã³mo": 1588,
      "ody": 1589,
      "Ġtener": 1590,
      "Ġbre": 1591,
      "ceso": 1592,
      "esta": 1593,
      "ection": 1594,
      "Ġagain": 1595,
      "Ġlow": 1596,
      "ancia": 1597,
      "iver": 1598,
      "Ġcommun": 1599,
      "mos": 1600,
      "ases": 1601,
      "aking": 1602,
      "ders": 1603,
      "ibil": 1604,
      "Ġidenti": 1605,
      "Ġgroup": 1606,
      "Ã¡l": 1607,
      "Ġprocess": 1608,
      "Ġdetermin": 1609,
      "Ġcontinu": 1610,
      "ĠCar": 1611,
      "Ġmenos": 1612,
      "ivel": 1613,
      "cio": 1614,
      "dos": 1615,
      "Ġesto": 1616,
      "Ġsever": 1617,
      "Ġback": 1618,
      "Ġschool": 1619,
      "ĠhabÃŃa": 1620,
      "Ġbefore": 1621,
      "Ġotras": 1622,
      "Ġart": 1623,
      "Ġtechn": 1624,
      "Ġpoc": 1625,
      "Ġsitu": 1626,
      "Ġdesign": 1627,
      "ash": 1628,
      "Ġboth": 1629,
      "ets": 1630,
      "Al": 1631,
      "aban": 1632,
      "Ġdifferent": 1633,
      "Ã³r": 1634,
      "ood": 1635,
      "Ġtreat": 1636,
      "ĠSh": 1637,
      "Ġlevel": 1638,
      "bol": 1639,
      "Ġpes": 1640,
      "Ġtal": 1641,
      "Ġsmall": 1642,
      "Ġmom": 1643,
      "ined": 1644,
      "ĠPr": 1645,
      "vernment": 1646,
      "Ġotro": 1647,
      "ticos": 1648,
      "Ġsistema": 1649,
      "iod": 1650,
      "Ġappro": 1651,
      "Ġcomb": 1652,
      "ĠInd": 1653,
      "ern": 1654,
      "Ġtres": 1655,
      "Ġlead": 1656,
      "ĠRes": 1657,
      "ĠniÃ±os": 1658,
      "Ġestado": 1659,
      "yn": 1660,
      "viron": 1661,
      "ands": 1662,
      "eno": 1663,
      "ĠsÃ³lo": 1664,
      "Ġbl": 1665,
      "Ġimportant": 1666,
      "lear": 1667,
      "ws": 1668,
      "Ġtrabaj": 1669,
      "gos": 1670,
      "Ġtrad": 1671,
      "xt": 1672,
      "contr": 1673,
      "Ġpot": 1674,
      "eg": 1675,
      "Ġshow": 1676,
      "Ġdoes": 1677,
      "ĠÃ©l": 1678,
      "ĠmÃ©dico": 1679,
      "col": 1680,
      "Ġmor": 1681,
      "ists": 1682,
      "icio": 1683,
      "ected": 1684,
      "ĠIf": 1685,
      "ually": 1686,
      "Ġparticular": 1687,
      "Ġcualquier": 1688,
      "Ġprob": 1689,
      "Ġmanera": 1690,
      "Ġintern": 1691,
      "cuent": 1692,
      "bor": 1693,
      "ĠZ": 1694,
      "ĠaÃ±o": 1695,
      "ĠThey": 1696,
      "zo": 1697,
      "Ġsk": 1698,
      "Ġlear": 1699,
      "Ġmujer": 1700,
      "Ġda": 1701,
      "Ġtipo": 1702,
      "Ġstudents": 1703,
      "Ġtrabajo": 1704,
      "itos": 1705,
      "uz": 1706,
      "Ġmundo": 1707,
      "Ġnumber": 1708,
      "Ġnow": 1709,
      "ages": 1710,
      "unque": 1711,
      "Ãºbl": 1712,
      "ĠdÃŃa": 1713,
      "ner": 1714,
      "eder": 1715,
      "ull": 1716,
      "Ġeconom": 1717,
      "Ġfood": 1718,
      "aria": 1719,
      "Ġchar": 1720,
      "ilar": 1721,
      "Ġnu": 1722,
      "ned": 1723,
      "other": 1724,
      "ula": 1725,
      "Ġexperien": 1726,
      "Ġfind": 1727,
      "Ġpersona": 1728,
      "Ġbene": 1729,
      "soci": 1730,
      "till": 1731,
      "ĠNor": 1732,
      "Ġgrand": 1733,
      "Ġposs": 1734,
      "Ġthree": 1735,
      "ĠBr": 1736,
      "Ġnivel": 1737,
      "ĠpolÃŃ": 1738,
      "Ġfil": 1739,
      "Ġris": 1740,
      "Ġmaterial": 1741,
      "âĢľ": 1742,
      "Ġgrup": 1743,
      "ĠSan": 1744,
      "Ġciud": 1745,
      "Ġmer": 1746,
      "Ġinvestig": 1747,
      "Ġembargo": 1748,
      "Ġshe": 1749,
      "Ã³g": 1750,
      "Ġtur": 1751,
      "uso": 1752,
      "ientras": 1753,
      "rec": 1754,
      "Ġless": 1755,
      "ĠCent": 1756,
      "Ġposible": 1757,
      "Ġread": 1758,
      "Ġejemplo": 1759,
      "Ġobserv": 1760,
      "Ġhear": 1761,
      "Ġencontr": 1762,
      "ah": 1763,
      "tics": 1764,
      "Ġcamb": 1765,
      "Ġcaso": 1766,
      "ural": 1767,
      "Ġmy": 1768,
      "Ġsido": 1769,
      "Ġdid": 1770,
      "Ġcell": 1771,
      "any": 1772,
      "Ġoften": 1773,
      "ĠUniversity": 1774,
      "istas": 1775,
      "gin": 1776,
      "ury": 1777,
      "Ġca": 1778,
      "of": 1779,
      "king": 1780,
      "vironment": 1781,
      "ĠPh": 1782,
      "echos": 1783,
      "Ġgood": 1784,
      "Ġconsum": 1785,
      "Ġpad": 1786,
      "ateg": 1787,
      "bs": 1788,
      "Ġley": 1789,
      "Ġelectr": 1790,
      "ĠDes": 1791,
      "Ġrev": 1792,
      "ĠDios": 1793,
      "zar": 1794,
      "Ġlan": 1795,
      "ium": 1796,
      "terior": 1797,
      "Ġmat": 1798,
      "Ġamb": 1799,
      "Ġexpres": 1800,
      "reg": 1801,
      "ÃŃo": 1802,
      "Ġvir": 1803,
      "ort": 1804,
      "Ġnom": 1805,
      "ĠBut": 1806,
      "iment": 1807,
      "Ġbar": 1808,
      "ables": 1809,
      "Ġgl": 1810,
      "Ġloc": 1811,
      "ving": 1812,
      "Ġmal": 1813,
      "ecciÃ³n": 1814,
      "Ġquien": 1815,
      "Ġcuerpo": 1816,
      "Ġinst": 1817,
      "Ġpower": 1818,
      "Ġhacia": 1819,
      "Ġdown": 1820,
      "Ġenfermed": 1821,
      "Ġhace": 1822,
      "iving": 1823,
      "Ġpap": 1824,
      "Ġdata": 1825,
      "mar": 1826,
      "cir": 1827,
      "Ġinde": 1828,
      "Ġvari": 1829,
      "ÃŃculo": 1830,
      "Ġoff": 1831,
      "ĠAnd": 1832,
      "imin": 1833,
      "ĠHow": 1834,
      "Ġgen": 1835,
      "No": 1836,
      "Ġcalled": 1837,
      "Ġinc": 1838,
      "ectos": 1839,
      "Ġemp": 1840,
      "anos": 1841,
      "Ġpeque": 1842,
      "Ġsenti": 1843,
      "ĠquÃ©": 1844,
      "Ġotra": 1845,
      "dic": 1846,
      "Ġmodel": 1847,
      "bres": 1848,
      "Ġrefer": 1849,
      "Ġwhile": 1850,
      "Ġcompar": 1851,
      "cis": 1852,
      "way": 1853,
      "Ġmust": 1854,
      "Ġtest": 1855,
      "ize": 1856,
      "Ġdistr": 1857,
      "mis": 1858,
      "Ġday": 1859,
      "ense": 1860,
      "ĠÃºl": 1861,
      "Ġmain": 1862,
      "Ġreport": 1863,
      "Ġstate": 1864,
      "ures": 1865,
      "ER": 1866,
      "ulation": 1867,
      "ms": 1868,
      "ont": 1869,
      "itor": 1870,
      "Ġclass": 1871,
      "usti": 1872,
      "oma": 1873,
      "Ġellos": 1874,
      "Ã¡c": 1875,
      "eng": 1876,
      "Ġabs": 1877,
      "ES": 1878,
      "An": 1879,
      "iciones": 1880,
      "Ġprac": 1881,
      "ajor": 1882,
      "Ġencuent": 1883,
      "Ġusing": 1884,
      "crip": 1885,
      "Ġprimer": 1886,
      "ily": 1887,
      "bier": 1888,
      "Ġproced": 1889,
      "ivil": 1890,
      "Ġincluding": 1891,
      "ĠEuro": 1892,
      "Ġcour": 1893,
      "uando": 1894,
      "AS": 1895,
      "Ġdijo": 1896,
      "Ġtake": 1897,
      "âĢĵ": 1898,
      "Ġdia": 1899,
      "iven": 1900,
      "Ġgreat": 1901,
      "Ġnues": 1902,
      "ik": 1903,
      "Ġ'": 1904,
      "oles": 1905,
      "Ġapar": 1906,
      "Ġrespons": 1907,
      "ĠCons": 1908,
      "Ġwar": 1909,
      "tud": 1910,
      "Ġhor": 1911,
      "This": 1912,
      "iere": 1913,
      "Ġpoder": 1914,
      "Ġdet": 1915,
      "part": 1916,
      "Ġpel": 1917,
      "Ġdepend": 1918,
      "Ġtrav": 1919,
      "Ġalgunos": 1920,
      "emÃ¡s": 1921,
      "ral": 1922,
      "bal": 1923,
      "ĠIntern": 1924,
      "una": 1925,
      "cus": 1926,
      "ban": 1927,
      "Ġdar": 1928,
      "urs": 1929,
      "Ġsex": 1930,
      "osp": 1931,
      "Ġredu": 1932,
      "ĠSin": 1933,
      "Ġfl": 1934,
      "taciÃ³n": 1935,
      "Ġrepresent": 1936,
      "Ġdol": 1937,
      "osa": 1938,
      "Ġdecir": 1939,
      "Ġsegu": 1940,
      "Ġrecom": 1941,
      "ouse": 1942,
      "Ġprote": 1943,
      "Ġtend": 1944,
      "Ġcommon": 1945,
      "ĠCan": 1946,
      "ights": 1947,
      "vi": 1948,
      "wh": 1949,
      "ĠSu": 1950,
      "Ġagua": 1951,
      "Ġtodas": 1952,
      "Ġdecl": 1953,
      "Ġgrow": 1954,
      "bers": 1955,
      "Ġknown": 1956,
      "iss": 1957,
      "itions": 1958,
      "Ġfact": 1959,
      "read": 1960,
      "tidad": 1961,
      "ply": 1962,
      "mun": 1963,
      "Ġexample": 1964,
      "Ġred": 1965,
      "ĠnÃº": 1966,
      "Ġhecho": 1967,
      "ĠIns": 1968,
      "ples": 1969,
      "ives": 1970,
      "ants": 1971,
      "Ġthough": 1972,
      "ional": 1973,
      "ax": 1974,
      "ped": 1975,
      "Ġaround": 1976,
      "ĠAm": 1977,
      "pear": 1978,
      "ĠÃ": 1979,
      "Ġnatural": 1980,
      "Ġques": 1981,
      "Ġah": 1982,
      "ĠtravÃ©s": 1983,
      "Ġesc": 1984,
      "cord": 1985,
      "oca": 1986,
      "ert": 1987,
      "Ġllev": 1988,
      "ately": 1989,
      "ĠUnited": 1990,
      "Ġpercent": 1991,
      "amin": 1992,
      "Ġcare": 1993,
      "Ġinflu": 1994,
      "Ġgre": 1995,
      "Ġimportante": 1996,
      "ĠsÃŃn": 1997,
      "ohn": 1998,
      "Ġlarge": 1999,
      "ived": 2000,
      "tivas": 2001,
      "Ã©l": 2002,
      "Ġindividual": 2003,
      "ministr": 2004,
      "Las": 2005,
      "Ġhijo": 2006,
      "hip": 2007,
      "Ġrecib": 2008,
      "pon": 2009,
      "Ġcier": 2010,
      "erse": 2011,
      "Ġobje": 2012,
      "ĠâĢĶ": 2013,
      "Ã³s": 2014,
      "Ġbro": 2015,
      "Ġgovernment": 2016,
      "Ġestable": 2017,
      "Ġlook": 2018,
      "Ġunders": 2019,
      "Ġbra": 2020,
      "ueb": 2021,
      "ults": 2022,
      "ĠAt": 2023,
      "vail": 2024,
      "Ġincluy": 2025,
      "Ġsignific": 2026,
      "Ġrelig": 2027,
      "Ġciudad": 2028,
      "Ġstill": 2029,
      "ential": 2030,
      "Ġsupport": 2031,
      "Ġmuer": 2032,
      "Ġestar": 2033,
      "Ġdefin": 2034,
      "Ġindustr": 2035,
      "Ġsalud": 2036,
      "Ġindic": 2037,
      "Ġese": 2038,
      "Ġveces": 2039,
      "II": 2040,
      "Ġpersonal": 2041,
      "Ġproblemas": 2042,
      "Ġallow": 2043,
      "ield": 2044,
      "rÃ¡": 2045,
      "isis": 2046,
      "Se": 2047,
      "Ġperiod": 2048,
      "De": 2049,
      "Ġlocal": 2050,
      "Ġcul": 2051,
      "Ġfut": 2052,
      "Ġconcep": 2053,
      "aces": 2054,
      "ties": 2055,
      "tation": 2056,
      "Ġbody": 2057,
      "igo": 2058,
      "Ġmet": 2059,
      "mit": 2060,
      "Ġig": 2061,
      "Ġwomen": 2062,
      "Ġestas": 2063,
      "Ġinvol": 2064,
      "Ġdisease": 2065,
      "mas": 2066,
      "Ġmant": 2067,
      "Ġapro": 2068,
      "Ġviol": 2069,
      "Ġmag": 2070,
      "Ġmientras": 2071,
      "akes": 2072,
      "Ġfew": 2073,
      "ative": 2074,
      "ency": 2075,
      "fe": 2076,
      "Ġprimera": 2077,
      "Ġprepar": 2078,
      "outh": 2079,
      "Ġinte": 2080,
      "entro": 2081,
      "Ġparticip": 2082,
      "Si": 2083,
      "rel": 2084,
      "ences": 2085,
      "Ġmight": 2086,
      "ele": 2087,
      "pes": 2088,
      "Ġfueron": 2089,
      "Ġright": 2090,
      "ĠEstados": 2091,
      "ĠStates": 2092,
      "Ġsimilar": 2093,
      "ired": 2094,
      "bil": 2095,
      "Ġmes": 2096,
      "zas": 2097,
      "Ġcurr": 2098,
      "Ġconduc": 2099,
      "Ġmucho": 2100,
      "ela": 2101,
      "Ġarea": 2102,
      "Ġsays": 2103,
      "Ġtratamiento": 2104,
      "ction": 2105,
      "pt": 2106,
      "ĠCl": 2107,
      "tand": 2108,
      "ective": 2109,
      "ĠThere": 2110,
      "Ġauth": 2111,
      "Ġsan": 2112,
      "Ġwrit": 2113,
      "che": 2114,
      "ized": 2115,
      "angre": 2116,
      "amento": 2117,
      "Por": 2118,
      "ound": 2119,
      "Ġunivers": 2120,
      "Ġbuild": 2121,
      "Ġ$": 2122,
      "Ġstar": 2123,
      "Ġtar": 2124,
      "Ġchang": 2125,
      "Ġplace": 2126,
      "ique": 2127,
      "Ġphys": 2128,
      "ÃŃm": 2129,
      "Ġautor": 2130,
      "ipos": 2131,
      "ago": 2132,
      "Ġcarr": 2133,
      "esto": 2134,
      "ĠNational": 2135,
      "AR": 2136,
      "urr": 2137,
      "Ġvac": 2138,
      "ques": 2139,
      "Ġrece": 2140,
      "Ġevid": 2141,
      "Ġnear": 2142,
      "Ġmul": 2143,
      "Ġsens": 2144,
      "Ġcat": 2145,
      "ĠBe": 2146,
      "Ġsino": 2147,
      "thers": 2148,
      "Ġwithout": 2149,
      "Ġ--": 2150,
      "Ġair": 2151,
      "Ġpat": 2152,
      "ĠTo": 2153,
      "Ġescu": 2154,
      "ĠOn": 2155,
      "ict": 2156,
      ",âĢĿ": 2157,
      "ches": 2158,
      "use": 2159,
      "ember": 2160,
      "Ġsangre": 2161,
      "Ġcult": 2162,
      "icios": 2163,
      "Ġviv": 2164,
      "ierra": 2165,
      "Ġanother": 2166,
      "empre": 2167,
      "Ġsiempre": 2168,
      "Ġwithin": 2169,
      "ĠPero": 2170,
      "Ġdej": 2171,
      "Ġtotal": 2172,
      "Ġanal": 2173,
      "Ġagainst": 2174,
      "alu": 2175,
      "Ġur": 2176,
      "ason": 2177,
      "Ġchange": 2178,
      "Ġblood": 2179,
      "ON": 2180,
      "Ġcost": 2181,
      "Ġries": 2182,
      "Ġdevelopment": 2183,
      "ĠFran": 2184,
      "Ġdescrib": 2185,
      "Ġatt": 2186,
      "Ġdiv": 2187,
      "Ġtemper": 2188,
      "Ġconv": 2189,
      "ĠRo": 2190,
      "tors": 2191,
      "ĠThese": 2192,
      "ware": 2193,
      "Ġbeh": 2194,
      "Ġrecord": 2195,
      "Ġmedio": 2196,
      "Ġma": 2197,
      "table": 2198,
      "Ġclim": 2199,
      "Ġmuchos": 2200,
      "Ġflu": 2201,
      "ix": 2202,
      "ying": 2203,
      "cle": 2204,
      "tin": 2205,
      "Ġthink": 2206,
      "Ġteach": 2207,
      "Ġbelie": 2208,
      "Ġpalab": 2209,
      "Ġscienti": 2210,
      "Ġiss": 2211,
      "gres": 2212,
      "Ġaff": 2213,
      "ically": 2214,
      "Ġdiag": 2215,
      "Ġalgo": 2216,
      "Un": 2217,
      "estro": 2218,
      "rea": 2219,
      "Ġenvironment": 2220,
      "ĠseÃ±": 2221,
      "Ġpati": 2222,
      "ĠSp": 2223,
      "Ġbajo": 2224,
      "Ġuso": 2225,
      "ological": 2226,
      "Ġmomento": 2227,
      "ono": 2228,
      "Ġsc": 2229,
      "Ġcapaci": 2230,
      "Ġbase": 2231,
      "Ġpens": 2232,
      "Ġspecies": 2233,
      "ĠGr": 2234,
      "Ġdesarrollo": 2235,
      "tt": 2236,
      "Ġqued": 2237,
      "ames": 2238,
      "Ġcome": 2239,
      "au": 2240,
      "ulo": 2241,
      "eras": 2242,
      "medi": 2243,
      "ĠJohn": 2244,
      "Ġpriv": 2245,
      "Ġearly": 2246,
      "els": 2247,
      "app": 2248,
      "Ġconstitu": 2249,
      "Ġagr": 2250,
      "Ġvers": 2251,
      "rar": 2252,
      "Ġpoco": 2253,
      "Ġplay": 2254,
      "Ġcontain": 2255,
      "Ġland": 2256,
      "Ġlight": 2257,
      "Ġasp": 2258,
      "Ġenergy": 2259,
      "Ġpregun": 2260,
      "Ġinclude": 2261,
      "abor": 2262,
      "ued": 2263,
      "ids": 2264,
      "ike": 2265,
      "Ġsym": 2266,
      "ĠSo": 2267,
      "uir": 2268,
      "Ġdistin": 2269,
      "Ġden": 2270,
      "Ġpur": 2271,
      "Ġarr": 2272,
      "ĠmayorÃŃa": 2273,
      "cording": 2274,
      "Ã¡m": 2275,
      "âĢĿ.": 2276,
      "gg": 2277,
      "Ġtras": 2278,
      "Ġ&": 2279,
      "Ġoccur": 2280,
      "ĠdÃŃas": 2281,
      "ĠQ": 2282,
      "Ġste": 2283,
      "Ġproceso": 2284,
      "Ġstand": 2285,
      "Ġpass": 2286,
      "As": 2287,
      "Ġsimple": 2288,
      "ĠCal": 2289,
      "Ã¡ncer": 2290,
      "ologÃŃa": 2291,
      "Ġsour": 2292,
      "ining": 2293,
      "ĠYork": 2294,
      "Ġmeas": 2295,
      "Ġmajor": 2296,
      "hib": 2297,
      "Ġcuenta": 2298,
      "Ġsolo": 2299,
      "Ġhombre": 2300,
      "EN": 2301,
      "cel": 2302,
      "Ã¡nd": 2303,
      "vailable": 2304,
      "ĠCo": 2305,
      "Ġrisk": 2306,
      "Ġcantidad": 2307,
      "Ġrela": 2308,
      "cido": 2309,
      "af": 2310,
      "Ġfav": 2311,
      "Ġeas": 2312,
      "olution": 2313,
      "cos": 2314,
      "Ġimpro": 2315,
      "ifica": 2316,
      "Ġorder": 2317,
      "Ġfal": 2318,
      "icion": 2319,
      "Ġayudar": 2320,
      "Ġsac": 2321,
      "Ġtoo": 2322,
      "IC": 2323,
      "emente": 2324,
      "line": 2325,
      "Ġfinal": 2326,
      "ĠCor": 2327,
      "ye": 2328,
      "Ġpresid": 2329,
      "Ġamong": 2330,
      "Ġsecond": 2331,
      "Ġselec": 2332,
      "amp": 2333,
      "Ġartic": 2334,
      "ĠcÃ³mo": 2335,
      "ĠPara": 2336,
      "uerra": 2337,
      "Ġhere": 2338,
      "Ġsuc": 2339,
      "Ġpain": 2340,
      "Ġspe": 2341,
      "ĠBo": 2342,
      "Ġetc": 2343,
      "Ġconoci": 2344,
      "Ġaplic": 2345,
      "ĠUnidos": 2346,
      "ĠMan": 2347,
      "paÃ±": 2348,
      "Ġseveral": 2349,
      "itical": 2350,
      "ĠpÃºbl": 2351,
      "Ġrema": 2352,
      "tura": 2353,
      "Ġplant": 2354,
      "Ġunderstand": 2355,
      "Ġelement": 2356,
      "thod": 2357,
      "portun": 2358,
      "Ġfuncion": 2359,
      "oss": 2360,
      "Ġcancer": 2361,
      "tamente": 2362,
      "Ġdentro": 2363,
      "Ġappear": 2364,
      "Ġdeber": 2365,
      "though": 2366,
      "ality": 2367,
      "Ġimag": 2368,
      "Ġtre": 2369,
      "Ġgan": 2370,
      "Ġglo": 2371,
      "Ġhabit": 2372,
      "ĠPer": 2373,
      "Ġhand": 2374,
      "Ġeng": 2375,
      "Ġning": 2376,
      "Re": 2377,
      "iam": 2378,
      "inas": 2379,
      "inos": 2380,
      "Ġtreatment": 2381,
      "Ġdec": 2382,
      "ĠPres": 2383,
      "Ġobl": 2384,
      "ĠGu": 2385,
      "ĠUS": 2386,
      "Ġsepar": 2387,
      "Ġdev": 2388,
      "Ġlast": 2389,
      "itional": 2390,
      "Ġcolor": 2391,
      "row": 2392,
      "ĠGo": 2393,
      "Ġgobier": 2394,
      "Ġwant": 2395,
      "ecer": 2396,
      "ape": 2397,
      "edor": 2398,
      "ulas": 2399,
      "Ġareas": 2400,
      "Ġnuevo": 2401,
      "anti": 2402,
      "Ġproduce": 2403,
      "Ġfamily": 2404,
      "Ġestaba": 2405,
      "ards": 2406,
      "lex": 2407,
      "ll": 2408,
      "ĠDr": 2409,
      "ogn": 2410,
      "oto": 2411,
      "ĠHealth": 2412,
      "Ġmedi": 2413,
      "atro": 2414,
      "amentos": 2415,
      "org": 2416,
      "Ġapr": 2417,
      "AN": 2418,
      "lor": 2419,
      "Ġhome": 2420,
      "Ġrele": 2421,
      "Ġidea": 2422,
      "ostr": 2423,
      "eron": 2424,
      "ek": 2425,
      "Ġesper": 2426,
      "ĠcÃ¡ncer": 2427,
      "acto": 2428,
      "ogra": 2429,
      "Ġcop": 2430,
      "aves": 2431,
      "Ġproper": 2432,
      "Ġderecho": 2433,
      "air": 2434,
      "Ġdomin": 2435,
      "Ġpun": 2436,
      "Ġreduc": 2437,
      "Ġhistory": 2438,
      "Ġtoda": 2439,
      "uto": 2440,
      "It": 2441,
      "Ġlater": 2442,
      "Ġsent": 2443,
      "ati": 2444,
      "Ġsay": 2445,
      "ley": 2446,
      "Ġnombre": 2447,
      "mero": 2448,
      "Ġcosas": 2449,
      "Ġps": 2450,
      "ron": 2451,
      "Ġmad": 2452,
      "Ġnuev": 2453,
      "ush": 2454,
      "tomas": 2455,
      "ats": 2456,
      "Ġorden": 2457,
      "Ġdivers": 2458,
      "Ġenfermedad": 2459,
      "Ġcause": 2460,
      "Ġconse": 2461,
      "Ġalim": 2462,
      "Ġemple": 2463,
      "Ġfour": 2464,
      "iera": 2465,
      "ector": 2466,
      "uras": 2467,
      "Ġhy": 2468,
      "Ġenc": 2469,
      "Ġmisma": 2470,
      "plement": 2471,
      "Ġreac": 2472,
      "cimiento": 2473,
      "ĠsÃŃ": 2474,
      "Ġbecome": 2475,
      "Ġcivil": 2476,
      "ĠEste": 2477,
      "Ġprovide": 2478,
      "Ġ|": 2479,
      "sure": 2480,
      "Ġtop": 2481,
      "Ġgas": 2482,
      "Ġaunque": 2483,
      "ĠYou": 2484,
      "ĠMe": 2485,
      "Ġavailable": 2486,
      "cas": 2487,
      "Ġprovid": 2488,
      "Ġlleg": 2489,
      "Ġella": 2490,
      "ĠEurope": 2491,
      "ĠEsto": 2492,
      "Ġcasa": 2493,
      "leg": 2494,
      "Ġindepend": 2495,
      "edad": 2496,
      "pid": 2497,
      "Ġpost": 2498,
      "//": 2499,
      "Ġmujeres": 2500,
      "Ġpossible": 2501,
      "ĠpodrÃŃa": 2502,
      "OS": 2503,
      "mon": 2504,
      "Ġesa": 2505,
      "Ġestim": 2506,
      "Ġarch": 2507,
      "itive": 2508,
      "ler": 2509,
      "Ġjug": 2510,
      ".)": 2511,
      "cios": 2512,
      "OR": 2513,
      "Ġsince": 2514,
      "ĠIm": 2515,
      "Ġintro": 2516,
      "ĠPe": 2517,
      "ĠSoci": 2518,
      "uls": 2519,
      "Ġbeb": 2520,
      "Ġlist": 2521,
      "sel": 2522,
      "azo": 2523,
      "Ġoblig": 2524,
      "ID": 2525,
      "onces": 2526,
      "Ġalm": 2527,
      "Ġconstruc": 2528,
      "iter": 2529,
      "ĠAll": 2530,
      "umento": 2531,
      "Ġgrupo": 2532,
      "Ġenti": 2533,
      "Ġview": 2534,
      "Ġban": 2535,
      "face": 2536,
      "Ġbir": 2537,
      "Ġcountry": 2538,
      "ĠGe": 2539,
      "ĠGod": 2540,
      "ended": 2541,
      "uerdo": 2542,
      "Ġnon": 2543,
      "erman": 2544,
      "bro": 2545,
      "less": 2546,
      "ways": 2547,
      "Ġjo": 2548,
      "work": 2549,
      "Ġintegr": 2550,
      "ĠSal": 2551,
      "Ġlabor": 2552,
      "ĠMay": 2553,
      "Ġfar": 2554,
      "ove": 2555,
      "bles": 2556,
      "Ġsolu": 2557,
      "Ġdiferentes": 2558,
      "Ġinici": 2559,
      "ane": 2560,
      "Ġopen": 2561,
      "://": 2562,
      "Ġhead": 2563,
      "Ġcompu": 2564,
      "Ġmark": 2565,
      "Ġdeben": 2566,
      "ĠpaÃŃses": 2567,
      "ttp": 2568,
      "ances": 2569,
      "Ġbetter": 2570,
      "ibles": 2571,
      "ĠÃºn": 2572,
      "Ġcin": 2573,
      "ĠfÃŃs": 2574,
      "IN": 2575,
      "Ġextre": 2576,
      "ĠWar": 2577,
      "Ġdra": 2578,
      "ectiv": 2579,
      "uring": 2580,
      "ĠNe": 2581,
      "Ġriesgo": 2582,
      "Ġstruc": 2583,
      "Ġcum": 2584,
      "illa": 2585,
      "Com": 2586,
      "ils": 2587,
      "Ġmic": 2588,
      "Ġestr": 2589,
      "Ġfur": 2590,
      "Ġalgunas": 2591,
      "ĠHowever": 2592,
      "Ġperform": 2593,
      "Ġmanag": 2594,
      "ests": 2595,
      "AC": 2596,
      "Ġfavor": 2597,
      "yr": 2598,
      "Ġwhe": 2599,
      "Ġcaracter": 2600,
      "Ġhistoria": 2601,
      "Ġpaci": 2602,
      "Ġatr": 2603,
      "Ġpropor": 2604,
      "Ġlik": 2605,
      "Ġequipo": 2606,
      "):": 2607,
      "Ġ,": 2608,
      "ĠSci": 2609,
      "Ġdig": 2610,
      "Ġeso": 2611,
      "ĠsÃŃntomas": 2612,
      "Con": 2613,
      "Ġraz": 2614,
      "orld": 2615,
      "ĠnÃºmero": 2616,
      "ister": 2617,
      "Ġobj": 2618,
      "aps": 2619,
      "Ġempres": 2620,
      "Ġinterest": 2621,
      "ths": 2622,
      "Ġmethod": 2623,
      "Ġcollec": 2624,
      "Ġdolor": 2625,
      "clus": 2626,
      "acy": 2627,
      "ĠsegÃºn": 2628,
      "Ġentonces": 2629,
      "ĠFr": 2630,
      "âĢ¦": 2631,
      "Ġfollowing": 2632,
      "Ġpon": 2633,
      "Ġnormal": 2634,
      "vention": 2635,
      "Ġante": 2636,
      "ĠEsta": 2637,
      "Ġremo": 2638,
      "thern": 2639,
      "titud": 2640,
      "ĠEar": 2641,
      "Ġdin": 2642,
      "Ġacer": 2643,
      "Ã¡r": 2644,
      "Ġcompr": 2645,
      "iness": 2646,
      "Ġauthor": 2647,
      "ror": 2648,
      "rael": 2649,
      "ĠEstado": 2650,
      "Ġname": 2651,
      "Ġpoint": 2652,
      "Ġluego": 2653,
      "Ġsignifica": 2654,
      "Ġbal": 2655,
      "Ġbat": 2656,
      "Ġbest": 2657,
      "Ġgiven": 2658,
      "ĠâĢĺ": 2659,
      "ĠniÃ±o": 2660,
      "Ġproblems": 2661,
      "ither": 2662,
      "Ġgrandes": 2663,
      "Ġcasos": 2664,
      "fo": 2665,
      "Ġedad": 2666,
      "eck": 2667,
      "Ġseman": 2668,
      "ĠWhen": 2669,
      "ĠPol": 2670,
      "ĠEd": 2671,
      "Ġmillion": 2672,
      "Ġbur": 2673,
      "Ġvia": 2674,
      "QuÃ©": 2675,
      "ibr": 2676,
      "Ġmillones": 2677,
      "Ġuntil": 2678,
      "We": 2679,
      "Ġtimes": 2680,
      "val": 2681,
      "ington": 2682,
      "Ġmeans": 2683,
      "Ġven": 2684,
      "Ġsto": 2685,
      "Ġresour": 2686,
      "ederal": 2687,
      "Ġproblema": 2688,
      "Ġlaw": 2689,
      "by": 2690,
      "Ġfrecu": 2691,
      "oung": 2692,
      "icult": 2693,
      "Ġcertain": 2694,
      "Para": 2695,
      "ably": 2696,
      "Ġdue": 2697,
      "igr": 2698,
      "isiÃ³n": 2699,
      "Ġge": 2700,
      "ĠGener": 2701,
      "Ġescr": 2702,
      "Ġcase": 2703,
      "ĠJes": 2704,
      "Ġbased": 2705,
      "oph": 2706,
      "Ġage": 2707,
      "ns": 2708,
      "Ã³l": 2709,
      "Ġrun": 2710,
      "ĠeconÃ³m": 2711,
      "Ġhaber": 2712,
      "Ġheart": 2713,
      "Ġmean": 2714,
      "iet": 2715,
      "Ġtor": 2716,
      "Ġcorrec": 2717,
      "Ġdisco": 2718,
      "Ġcolon": 2719,
      "Ġsum": 2720,
      "get": 2721,
      "acil": 2722,
      "Ġcere": 2723,
      "ĠUna": 2724,
      "Ġcard": 2725,
      "oso": 2726,
      "omb": 2727,
      "Ġevalu": 2728,
      "Ġfig": 2729,
      "Ġverdad": 2730,
      "jas": 2731,
      "uales": 2732,
      "Ġcells": 2733,
      "Ġdir": 2734,
      "Ġexpos": 2735,
      "etes": 2736,
      "adamente": 2737,
      "Ġkeep": 2738,
      "Ġhard": 2739,
      "centr": 2740,
      "echa": 2741,
      "Ġol": 2742,
      "ills": 2743,
      "Ġinstitu": 2744,
      "Ġgar": 2745,
      "Ġunos": 2746,
      "izaciÃ³n": 2747,
      "Ġextra": 2748,
      "Ġdeclar": 2749,
      "Ġsing": 2750,
      "Ġtempor": 2751,
      "Ġadministr": 2752,
      "ols": 2753,
      "sions": 2754,
      "Ġdiscus": 2755,
      "Ġpast": 2756,
      "Ġothers": 2757,
      "Ġlittle": 2758,
      "Ġjud": 2759,
      "puest": 2760,
      "Ġpunto": 2761,
      "ret": 2762,
      "Ã¡g": 2763,
      "Ġentr": 2764,
      "Ġpopulation": 2765,
      "__": 2766,
      "Ġapoy": 2767,
      "ĠartÃŃculo": 2768,
      "Ġspecific": 2769,
      "Ġsegur": 2770,
      "Ġmuchas": 2771,
      "atory": 2772,
      "Ġgobierno": 2773,
      "Ġperman": 2774,
      "Ġlangu": 2775,
      "ecess": 2776,
      "ĠÃºlti": 2777,
      "Ġsuccess": 2778,
      "ĠAb": 2779,
      "anda": 2780,
      "ĠenergÃŃa": 2781,
      "ÃŃf": 2782,
      "Ġseem": 2783,
      "Ġable": 2784,
      "Ġdese": 2785,
      "Ġsl": 2786,
      "Ġtomar": 2787,
      "ĠCuando": 2788,
      "Ġperf": 2789,
      "inar": 2790,
      "Ġdeath": 2791,
      "Ġayuda": 2792,
      "Ġbaj": 2793,
      "ĠCoun": 2794,
      "cop": 2795,
      "cular": 2796,
      "hol": 2797,
      "olÃ³g": 2798,
      "Ġpopular": 2799,
      "ians": 2800,
      "peti": 2801,
      "Ġput": 2802,
      "ĠBar": 2803,
      "ips": 2804,
      "oks": 2805,
      "Ġsw": 2806,
      "Ġdice": 2807,
      "azÃ³n": 2808,
      "Ġejerci": 2809,
      "Ġfamilia": 2810,
      "iado": 2811,
      "Des": 2812,
      "nal": 2813,
      "Ġamo": 2814,
      "Ġestudio": 2815,
      "Ġprofes": 2816,
      "iva": 2817,
      "ĠTambiÃ©n": 2818,
      "Ġcuatro": 2819,
      "ĠHar": 2820,
      "ĠAp": 2821,
      "ief": 2822,
      "Ġcomen": 2823,
      "Ġassoci": 2824,
      "Ġdich": 2825,
      "arch": 2826,
      "ability": 2827,
      "gÃºn": 2828,
      "ĠDE": 2829,
      "AL": 2830,
      "Ch": 2831,
      "ĠQu": 2832,
      "Ġaccess": 2833,
      "Ġclear": 2834,
      "Ġresid": 2835,
      "Ġahora": 2836,
      "Ġthings": 2837,
      "ĠAfr": 2838,
      "Ġtype": 2839,
      "das": 2840,
      "Ġflo": 2841,
      "ĠrelaciÃ³n": 2842,
      "tice": 2843,
      "Ġcapital": 2844,
      "Ġhowever": 2845,
      "Ġliter": 2846,
      "Ġdie": 2847,
      "gas": 2848,
      "ĠPl": 2849,
      "ival": 2850,
      "orÃŃa": 2851,
      "âĢĿ,": 2852,
      "Ġped": 2853,
      "ĠMo": 2854,
      "Ġaquell": 2855,
      "uary": 2856,
      "Ġvo": 2857,
      "engu": 2858,
      "unda": 2859,
      "Ġ/": 2860,
      "Ġtex": 2861,
      "editar": 2862,
      "Ġcentury": 2863,
      "ross": 2864,
      "Ġacuerdo": 2865,
      "ĠMin": 2866,
      "Ġpolic": 2867,
      "Ġline": 2868,
      "Ġigual": 2869,
      "Ã©cn": 2870,
      "Ġusually": 2871,
      "Ġlet": 2872,
      "Ġold": 2873,
      "Ġhapp": 2874,
      "Ġalong": 2875,
      "Ġlevels": 2876,
      "cept": 2877,
      "Ar": 2878,
      "Ġemerg": 2879,
      "Ġlogr": 2880,
      "Ġcorr": 2881,
      "ites": 2882,
      "ĠDav": 2883,
      "Ġconten": 2884,
      "Ġextr": 2885,
      "ĠcÃ©l": 2886,
      "Ġdoctor": 2887,
      "Ġdebido": 2888,
      "Ġactual": 2889,
      "Ġidentif": 2890,
      "ptom": 2891,
      "ĠSome": 2892,
      "AT": 2893,
      "Ġpul": 2894,
      "Ġarm": 2895,
      "ires": 2896,
      "Ġestabl": 2897,
      "Ġdays": 2898,
      "ĠserÃ¡": 2899,
      "Ġfree": 2900,
      "ema": 2901,
      "Ġarg": 2902,
      "ling": 2903,
      "ports": 2904,
      "tre": 2905,
      "ison": 2906,
      "Ġchem": 2907,
      "Ġfoc": 2908,
      "Ġbook": 2909,
      "not": 2910,
      "puesta": 2911,
      "Ġcono": 2912,
      "eles": 2913,
      "ĠÃ©s": 2914,
      "Ġcarb": 2915,
      "Ġproject": 2916,
      "amientos": 2917,
      "aim": 2918,
      "iedad": 2919,
      "IS": 2920,
      "Ġbenefici": 2921,
      "Ġmuerte": 2922,
      "sts": 2923,
      "Ġfinanci": 2924,
      "ĠDepart": 2925,
      "ators": 2926,
      "ination": 2927,
      "........": 2928,
      "Ġhombres": 2929,
      "Ġfall": 2930,
      "www": 2931,
      "Ġgente": 2932,
      "uda": 2933,
      "ola": 2934,
      "Ġregular": 2935,
      "Ġtermin": 2936,
      "Ġos": 2937,
      "Ġcountries": 2938,
      "Ġconst": 2939,
      "ule": 2940,
      "itis": 2941,
      "Ġdecid": 2942,
      "ode": 2943,
      "Ġill": 2944,
      "Ġmiem": 2945,
      "ĠHist": 2946,
      "Ġsiglo": 2947,
      "Ġmedical": 2948,
      "Ġmulti": 2949,
      "ength": 2950,
      "vent": 2951,
      "undial": 2952,
      "Ġcambio": 2953,
      "Ġleast": 2954,
      "ories": 2955,
      "tener": 2956,
      "Ġeducation": 2957,
      "enas": 2958,
      "Ġrelacion": 2959,
      "Ġlikely": 2960,
      "Ġabove": 2961,
      "Ġmodo": 2962,
      "Ġfacil": 2963,
      "asa": 2964,
      "Ġoriginal": 2965,
      "Ġvent": 2966,
      "Ġlargo": 2967,
      "Ġjur": 2968,
      "Ġconver": 2969,
      "Ġpobl": 2970,
      "ĠtÃ©r": 2971,
      "uss": 2972,
      "aken": 2973,
      "Ġvuel": 2974,
      "Ġmues": 2975,
      "alf": 2976,
      "ĠmÃºs": 2977,
      "Ġsite": 2978,
      "Ġstat": 2979,
      "Ġjue": 2980,
      "ĠrÃ¡": 2981,
      "Ã±as": 2982,
      "glish": 2983,
      "Ġdatos": 2984,
      "Ġsystems": 2985,
      "ĠPre": 2986,
      "atura": 2987,
      "Ġcho": 2988,
      "ĠWorld": 2989,
      "Ġdom": 2990,
      "ĠSouth": 2991,
      "Ġabr": 2992,
      "Ġconcer": 2993,
      "ĠNorth": 2994,
      "Ġeran": 2995,
      "ĠInstitu": 2996,
      "Ġnever": 2997,
      "Ġconditions": 2998,
      "ensiÃ³n": 2999,
      "ya": 3000,
      "Ġnar": 3001,
      "oluciÃ³n": 3002,
      "If": 3003,
      "acks": 3004,
      "ĠMon": 3005,
      "Ġside": 3006,
      "ĠPresid": 3007,
      "enes": 3008,
      "ensa": 3009,
      "Ġvisit": 3010,
      "ibut": 3011,
      "zÃ³": 3012,
      "paÃ±a": 3013,
      "Ġfuera": 3014,
      "Ġnational": 3015,
      "Ġfunction": 3016,
      "fort": 3017,
      "Ġresults": 3018,
      "vil": 3019,
      "Ġcommunity": 3020,
      "ĠTe": 3021,
      "Ġmediante": 3022,
      "Ġprofess": 3023,
      "Ġyo": 3024,
      "Ġpag": 3025,
      "ÃŃfic": 3026,
      "Ġinterpre": 3027,
      "Ġbecame": 3028,
      "ares": 3029,
      "Ġleft": 3030,
      "iales": 3031,
      "ime": 3032,
      "Ġale": 3033,
      "atch": 3034,
      "Ġdecis": 3035,
      "tric": 3036,
      "Ġflow": 3037,
      "Ġminut": 3038,
      "Ġsignificant": 3039,
      "ivo": 3040,
      "Ġincrease": 3041,
      "enos": 3042,
      "Ġincluso": 3043,
      "ĠIsrael": 3044,
      "her": 3045,
      "Ġsiguiente": 3046,
      "Ġterrit": 3047,
      "Ġnutr": 3048,
      "Ġtus": 3049,
      "Ġcourse": 3050,
      "izo": 3051,
      "Ġnuestro": 3052,
      "yl": 3053,
      "Ġcausa": 3054,
      "aÃ±": 3055,
      "ibilidad": 3056,
      "view": 3057,
      "aw": 3058,
      "graph": 3059,
      "ĠDec": 3060,
      "ĠlÃŃne": 3061,
      "rag": 3062,
      "Ġchanges": 3063,
      "rome": 3064,
      "ledge": 3065,
      "Ġfish": 3066,
      "Ġaud": 3067,
      "fter": 3068,
      "tiene": 3069,
      "gether": 3070,
      "Ġdiagnos": 3071,
      "une": 3072,
      "Ġampl": 3073,
      "Ġans": 3074,
      "Ġnext": 3075,
      "Ġlimit": 3076,
      "Ġstudies": 3077,
      "ric": 3078,
      "Ġguerra": 3079,
      "ÃŃt": 3080,
      "cida": 3081,
      "Ġhar": 3082,
      "Ġwin": 3083,
      "Ġbegin": 3084,
      "ĠEm": 3085,
      "ĠAmerica": 3086,
      "ĠOc": 3087,
      "Ġretur": 3088,
      "Ġjusti": 3089,
      "day": 3090,
      "cha": 3091,
      "IV": 3092,
      "tual": 3093,
      "Ġfundam": 3094,
      "ĠtÃ©cn": 3095,
      "For": 3096,
      "Ġtoday": 3097,
      "atures": 3098,
      "ptoms": 3099,
      "nes": 3100,
      "Ġsiti": 3101,
      "bros": 3102,
      "Ġideas": 3103,
      "Ġliber": 3104,
      "Ġvarios": 3105,
      "oria": 3106,
      "Ġinstr": 3107,
      "put": 3108,
      "ering": 3109,
      "Ġcompon": 3110,
      "Ġshort": 3111,
      "ubl": 3112,
      "Ġprincipal": 3113,
      "Ġinstruc": 3114,
      "anto": 3115,
      "Ġcorres": 3116,
      "Ġmedicamentos": 3117,
      "ueba": 3118,
      "Ġplac": 3119,
      "Ġdam": 3120,
      "Ġgene": 3121,
      "Ġvalor": 3122,
      "oman": 3123,
      "ĠprÃ¡c": 3124,
      "Ġradi": 3125,
      "Ġbrain": 3126,
      "Ġdirect": 3127,
      "son": 3128,
      "Ġderechos": 3129,
      "Ġfeel": 3130,
      "icamente": 3131,
      "Ġ=": 3132,
      "abilidad": 3133,
      "Ġdescu": 3134,
      "Ġdiffic": 3135,
      "Ġorigin": 3136,
      "Ġado": 3137,
      "Ġnecess": 3138,
      "Ġvit": 3139,
      "Ġconcentr": 3140,
      "Ġconn": 3141,
      "Ġaltern": 3142,
      "Ġhigher": 3143,
      "Ġstrong": 3144,
      "Ġeffects": 3145,
      "ashington": 3146,
      "Ġcharacter": 3147,
      "Ġglobal": 3148,
      "des": 3149,
      "Ġva": 3150,
      "Ġalimentos": 3151,
      "eza": 3152,
      "arious": 3153,
      "Ġconserv": 3154,
      "Ġpermiti": 3155,
      "Ġaway": 3156,
      "imientos": 3157,
      "ump": 3158,
      "Ġcumpl": 3159,
      "Ġpromo": 3160,
      "Ġobtener": 3161,
      ".-": 3162,
      "Ġvide": 3163,
      "Ġhosp": 3164,
      "tian": 3165,
      "Ġresist": 3166,
      "Ġdrug": 3167,
      "Ġproy": 3168,
      "culos": 3169,
      "ciÃ³": 3170,
      "cias": 3171,
      "âĢ¢": 3172,
      "Ġupon": 3173,
      "Ġmaking": 3174,
      "udo": 3175,
      "ĠtÃ©rmin": 3176,
      "ecen": 3177,
      "ĠGerman": 3178,
      "Ġefectos": 3179,
      "Ġmid": 3180,
      "Ġjuego": 3181,
      "ĠfÃ¡": 3182,
      "alla": 3183,
      "Ġspace": 3184,
      "Ġestu": 3185,
      "ĠseÃ±al": 3186,
      "ensive": 3187,
      "Ġcases": 3188,
      "ĠChris": 3189,
      "Ġconsecu": 3190,
      "ird": 3191,
      "Ġradio": 3192,
      "ĠWhat": 3193,
      "unca": 3194,
      "Ġestruc": 3195,
      "ĠJe": 3196,
      "ume": 3197,
      "ĠEnglish": 3198,
      "ney": 3199,
      "Ex": 3200,
      "Ġapproach": 3201,
      "Ġlengu": 3202,
      "Ġsiguientes": 3203,
      "ĠLo": 3204,
      "selves": 3205,
      "Ġcasi": 3206,
      "Ġcomerci": 3207,
      "Ġgive": 3208,
      "ged": 3209,
      "Ġdistribu": 3210,
      "ĠSec": 3211,
      "ĠResearch": 3212,
      "Ġvirus": 3213,
      "Ġmeasure": 3214,
      "cado": 3215,
      "Ġespaci": 3216,
      "Ġpatients": 3217,
      "Ġsurface": 3218,
      "fac": 3219,
      "ello": 3220,
      "iene": 3221,
      "Ġespecially": 3222,
      "asing": 3223,
      "Ġsomething": 3224,
      "Ġclo": 3225,
      "ock": 3226,
      "Ġcover": 3227,
      "Ġacerca": 3228,
      "Ġyoung": 3229,
      "Ġevent": 3230,
      "ibl": 3231,
      "Ġep": 3232,
      "Ġconj": 3233,
      "Ġworks": 3234,
      "ĠDis": 3235,
      "ĠaquÃŃ": 3236,
      "Ġcapacidad": 3237,
      "Ġrespon": 3238,
      "Ġresearchers": 3239,
      "urch": 3240,
      "ĠproducciÃ³n": 3241,
      "Ġinteres": 3242,
      "Ġnet": 3243,
      "irm": 3244,
      "ictor": 3245,
      "Ġteam": 3246,
      "Ġespec": 3247,
      "Ġmens": 3248,
      "ĠGeneral": 3249,
      "ules": 3250,
      "Ġjun": 3251,
      "Ġther": 3252,
      "ecta": 3253,
      "Ġwhether": 3254,
      "Ġsubs": 3255,
      "ĠEarth": 3256,
      "Ġox": 3257,
      "Ġcomunic": 3258,
      "arlo": 3259,
      "----": 3260,
      "Ġclar": 3261,
      "Ġenough": 3262,
      "Ġground": 3263,
      "iga": 3264,
      "Ġcentral": 3265,
      "Ġtierra": 3266,
      "Ġbehav": 3267,
      "Ġtogether": 3268,
      "try": 3269,
      "isl": 3270,
      "oney": 3271,
      "elo": 3272,
      "ende": 3273,
      "What": 3274,
      "Ġreach": 3275,
      "Ġdiab": 3276,
      "Ġfull": 3277,
      "ĠJew": 3278,
      "Ġterm": 3279,
      "Ġlado": 3280,
      "Ġgroups": 3281,
      "Ġbi": 3282,
      "ĠFe": 3283,
      "Ġrecon": 3284,
      "Ġnada": 3285,
      "Ġfocus": 3286,
      "ĠcomÃºn": 3287,
      "ĠcÃ©lulas": 3288,
      "Ġafect": 3289,
      "Ġfarm": 3290,
      "Ġpiel": 3291,
      "Ġescrib": 3292,
      "cial": 3293,
      "Ġfurther": 3294,
      "Ġscience": 3295,
      "Ġlower": 3296,
      "Ġprevent": 3297,
      "Ġlearn": 3298,
      "ĠAustr": 3299,
      "iÃ©n": 3300,
      "ancias": 3301,
      "Ġhttp": 3302,
      "cidos": 3303,
      "Ġsoft": 3304,
      "ours": 3305,
      "ĠOne": 3306,
      "Ġalways": 3307,
      "Ġcity": 3308,
      "Ġbot": 3309,
      "Ġcuales": 3310,
      "Ġaseg": 3311,
      "Ġnueva": 3312,
      "uck": 3313,
      "Ġwords": 3314,
      "Ġprograma": 3315,
      "Ġnecesario": 3316,
      "Ġempe": 3317,
      "enciÃ³n": 3318,
      "arÃŃa": 3319,
      "Ġlat": 3320,
      "Ġbacter": 3321,
      "ĠRec": 3322,
      "ulos": 3323,
      "Ġaver": 3324,
      "Ġelimin": 3325,
      "iro": 3326,
      "Ġtechnology": 3327,
      "times": 3328,
      "Ġmembers": 3329,
      "itud": 3330,
      "tido": 3331,
      "glÃ©s": 3332,
      "AD": 3333,
      "Ġmodern": 3334,
      "ych": 3335,
      "istem": 3336,
      "ĠpolÃŃtica": 3337,
      "itan": 3338,
      "ournal": 3339,
      "ĠWashington": 3340,
      "Ã³d": 3341,
      "ements": 3342,
      "itary": 3343,
      "iana": 3344,
      "Ġrights": 3345,
      "Ġpartes": 3346,
      "ization": 3347,
      "ĠCalif": 3348,
      "Ġfuture": 3349,
      "ision": 3350,
      "Ġlearning": 3351,
      "There": 3352,
      "Ġbenef": 3353,
      "onas": 3354,
      "lic": 3355,
      "Ġpan": 3356,
      "eds": 3357,
      "Ġtele": 3358,
      "ueblo": 3359,
      "Ġproduction": 3360,
      "Ġrem": 3361,
      "tives": 3362,
      "Ġevidence": 3363,
      "Ġseguridad": 3364,
      "bert": 3365,
      "ĠaÃºn": 3366,
      "Ġapplic": 3367,
      "tific": 3368,
      "ening": 3369,
      "zos": 3370,
      "ĠJul": 3371,
      "Ġrevis": 3372,
      "ung": 3373,
      "ĠmÃ¡": 3374,
      "ĠademÃ¡s": 3375,
      "ĠCenter": 3376,
      "alia": 3377,
      "var": 3378,
      "Ġtum": 3379,
      "Ġlanguage": 3380,
      "Ġnuestra": 3381,
      "Ġhouse": 3382,
      "Ġencuentra": 3383,
      "Ã¡lisis": 3384,
      "NA": 3385,
      "sed": 3386,
      "adora": 3387,
      "Ġvarious": 3388,
      "ĠJap": 3389,
      "Ġquestion": 3390,
      "Ġofre": 3391,
      "adr": 3392,
      "Ġreduce": 3393,
      "Ġplants": 3394,
      "Ġespecial": 3395,
      "ĠsituaciÃ³n": 3396,
      "ĠState": 3397,
      "Ġnego": 3398,
      "Ġnuc": 3399,
      "iber": 3400,
      "Ġinj": 3401,
      "Ġdeveloped": 3402,
      "Ġkind": 3403,
      "Ġdirig": 3404,
      "Ġpues": 3405,
      "emia": 3406,
      "Ġcambi": 3407,
      "Ġproductos": 3408,
      "Ġemo": 3409,
      "Ġimpl": 3410,
      "Ġseen": 3411,
      "ĠtenÃŃa": 3412,
      "Ġresources": 3413,
      "Ġsymptoms": 3414,
      "Â»": 3415,
      "Ġweb": 3416,
      "Ġhaving": 3417,
      "Ġrather": 3418,
      "Ġeffect": 3419,
      "iencia": 3420,
      "Ġpartir": 3421,
      "Ġrom": 3422,
      "ĠcorazÃ³n": 3423,
      "Ġsuf": 3424,
      "ĠWill": 3425,
      "gundo": 3426,
      "Ġanterior": 3427,
      "ornia": 3428,
      "Ġalguna": 3429,
      "bit": 3430,
      "jar": 3431,
      "tional": 3432,
      "Ġaccording": 3433,
      "Ġrep": 3434,
      "To": 3435,
      "ĠCong": 3436,
      "gles": 3437,
      "Ġaument": 3438,
      "Ġsentido": 3439,
      "Ġclimate": 3440,
      "Ġfield": 3441,
      "Ġmovimiento": 3442,
      "ints": 3443,
      "onom": 3444,
      "tically": 3445,
      "Ġeither": 3446,
      "Ġrequire": 3447,
      "ised": 3448,
      "Ġrealizar": 3449,
      "ĠÂ¡": 3450,
      "Ġtro": 3451,
      "Ġdone": 3452,
      "Ġacco": 3453,
      "Ġfive": 3454,
      "Ġhoy": 3455,
      "ĠcompaÃ±": 3456,
      "Ġresultados": 3457,
      "ysis": 3458,
      "ready": 3459,
      "Ġcient": 3460,
      "Ġcele": 3461,
      "Ġcurrent": 3462,
      "ring": 3463,
      "Ġnega": 3464,
      "Ġpadres": 3465,
      "Ġadvan": 3466,
      "ordin": 3467,
      "tero": 3468,
      "ĠCr": 3469,
      "aga": 3470,
      "Ġacross": 3471,
      "ĠGre": 3472,
      "ĠHis": 3473,
      "Ġstates": 3474,
      "Ġexplain": 3475,
      "Ġpatr": 3476,
      "ĠII": 3477,
      "Ġregion": 3478,
      "Ġtaken": 3479,
      "Ġcondiciones": 3480,
      "Ġfail": 3481,
      "Ġquer": 3482,
      "dle": 3483,
      "Ġreason": 3484,
      "ened": 3485,
      "Ġprueba": 3486,
      "Ġspecial": 3487,
      "Este": 3488,
      "Ġworking": 3489,
      "loy": 3490,
      "Ġestudios": 3491,
      "Ġusar": 3492,
      "Ġmeses": 3493,
      "imo": 3494,
      "pond": 3495,
      "Ġdifficult": 3496,
      "ream": 3497,
      "fÃŃa": 3498,
      "Ġcame": 3499,
      "erican": 3500,
      "iano": 3501,
      "Ã¼": 3502,
      "omas": 3503,
      "ford": 3504,
      "iores": 3505,
      "Ġlab": 3506,
      "puesto": 3507,
      "Ġnaci": 3508,
      "ĠSur": 3509,
      "Ġenv": 3510,
      "ilt": 3511,
      "Ġtrata": 3512,
      "icial": 3513,
      "itish": 3514,
      "Ġbio": 3515,
      "ĠPa": 3516,
      "Ġperd": 3517,
      "Ġactividades": 3518,
      "ĠinglÃ©s": 3519,
      "Ġestudi": 3520,
      "Ã©rica": 3521,
      "Ġdispon": 3522,
      "Ġtoward": 3523,
      "Ġserie": 3524,
      "igu": 3525,
      "Ġenter": 3526,
      "ĠChina": 3527,
      "Ġfamiliar": 3528,
      "Ġbor": 3529,
      "Ġadap": 3530,
      "Ġtipos": 3531,
      "ked": 3532,
      "Ġconoc": 3533,
      "self": 3534,
      "Ġcomien": 3535,
      "ograph": 3536,
      "Ġfem": 3537,
      "ĠThat": 3538,
      "ĠReg": 3539,
      "Ġrealidad": 3540,
      "Ġmedia": 3541,
      "venciÃ³n": 3542,
      "Ġpolitical": 3543,
      "Ġfuerza": 3544,
      "Ġhizo": 3545,
      "Ġsingle": 3546,
      "irit": 3547,
      "posed": 3548,
      "Ġhijos": 3549,
      "ĠatenciÃ³n": 3550,
      "Ġsuperior": 3551,
      "ho": 3552,
      "Ġmass": 3553,
      "Ġll": 3554,
      "Ġoffer": 3555,
      "embre": 3556,
      "ĠHer": 3557,
      "Ġago": 3558,
      "tead": 3559,
      "Ġauto": 3560,
      "Ġrecogn": 3561,
      "Ġneeds": 3562,
      "ajes": 3563,
      "ĠStud": 3564,
      "ĠCalifornia": 3565,
      "ĠNue": 3566,
      "Ġgoing": 3567,
      "Ġexperience": 3568,
      "Ġalco": 3569,
      "Ġpublished": 3570,
      "Ġju": 3571,
      "Ġproces": 3572,
      "Ġsaber": 3573,
      "Ġpalabras": 3574,
      "Ġcinco": 3575,
      "Ġpressure": 3576,
      "Ġalcan": 3577,
      "Ġlin": 3578,
      "Ġsource": 3579,
      "ĠmÃ©to": 3580,
      "ÃŃsticas": 3581,
      "Ġclos": 3582,
      "chie": 3583,
      "ope": 3584,
      "porte": 3585,
      "Ġsociedad": 3586,
      "Ġpueblo": 3587,
      "ursos": 3588,
      "Ġproporcion": 3589,
      "ĠLu": 3590,
      "Ġdio": 3591,
      "Ġsold": 3592,
      "Ġiniti": 3593,
      "Ġevitar": 3594,
      "rededor": 3595,
      "Ġkey": 3596,
      "Ġdesc": 3597,
      "ĠdifÃŃ": 3598,
      "Ġhoras": 3599,
      "ĠDavid": 3600,
      "Ġvel": 3601,
      "Ġword": 3602,
      "Ġsun": 3603,
      "Ġblan": 3604,
      "produc": 3605,
      "Ġrate": 3606,
      "ima": 3607,
      "Ġencontrar": 3608,
      "ram": 3609,
      "anza": 3610,
      "Ġfel": 3611,
      "etas": 3612,
      "publ": 3613,
      "Ġalready": 3614,
      "ĠServ": 3615,
      "Ġwhy": 3616,
      "Ġvarias": 3617,
      "Ġsust": 3618,
      "Ġpron": 3619,
      "Ġrespecto": 3620,
      "Ġbegan": 3621,
      "istic": 3622,
      "Ġtw": 3623,
      "Ġluz": 3624,
      "Ġincreased": 3625,
      "Ġpasado": 3626,
      "apia": 3627,
      "Ġsexual": 3628,
      "Ġsch": 3629,
      "ĠEng": 3630,
      "ĠacciÃ³n": 3631,
      "Ġmiles": 3632,
      "Ġonce": 3633,
      "Ġocas": 3634,
      "ificaciÃ³n": 3635,
      "Ġhub": 3636,
      "ulaciÃ³n": 3637,
      "Ġphysical": 3638,
      "Ġpic": 3639,
      "char": 3640,
      "ĠShe": 3641,
      "Ġrelations": 3642,
      "void": 3643,
      "Ġopin": 3644,
      "Ġliving": 3645,
      "Ġello": 3646,
      "iamente": 3647,
      "Ġactividad": 3648,
      "Ġaddress": 3649,
      "ĠTex": 3650,
      "Ġeconomic": 3651,
      "IT": 3652,
      "Ġgrad": 3653,
      "Ġcut": 3654,
      "aster": 3655,
      "acionales": 3656,
      "Ġdesarroll": 3657,
      "Ġrange": 3658,
      "Ġknowledge": 3659,
      "Ġservicios": 3660,
      "Ġsil": 3661,
      "Ġprovided": 3662,
      "Ġense": 3663,
      "Ġwhite": 3664,
      "ĠEduc": 3665,
      "empl": 3666,
      "Ġresultado": 3667,
      "Ġact": 3668,
      "Ã¡ne": 3669,
      "Ġniveles": 3670,
      "Ġways": 3671,
      "ĠSte": 3672,
      "iles": 3673,
      "wer": 3674,
      "igos": 3675,
      "Ġcelebr": 3676,
      "estern": 3677,
      "uan": 3678,
      "Ġsyn": 3679,
      "Ġhaya": 3680,
      "Ġwr": 3681,
      "Ġlibre": 3682,
      "ĠVal": 3683,
      "Ġcreate": 3684,
      "Pro": 3685,
      "tively": 3686,
      "Ġloss": 3687,
      "ĠWith": 3688,
      "Ã¡tica": 3689,
      "ĠBritish": 3690,
      "Una": 3691,
      "itas": 3692,
      "gress": 3693,
      "illed": 3694,
      "side": 3695,
      "Ġdeg": 3696,
      "Ġadecu": 3697,
      "Ġul": 3698,
      "Ġsix": 3699,
      "Ġanimal": 3700,
      "Ġsug": 3701,
      "ibility": 3702,
      "Ġthemselves": 3703,
      "Ac": 3704,
      "Ġmeet": 3705,
      "ĠInternet": 3706,
      "eding": 3707,
      "Ġitself": 3708,
      "Ġintroduc": 3709,
      "Ġdispos": 3710,
      "Ġmedida": 3711,
      "onstr": 3712,
      "gado": 3713,
      "Ġfrequ": 3714,
      "Ġhalf": 3715,
      "mientos": 3716,
      "ĠespaÃ±": 3717,
      "Ġllegar": 3718,
      "eda": 3719,
      "Ġrole": 3720,
      "Ġnunca": 3721,
      "enez": 3722,
      "Ġdeta": 3723,
      "ĠBl": 3724,
      "Ġcabeza": 3725,
      "Ġalto": 3726,
      "Ġidentific": 3727,
      "Ġprobable": 3728,
      "Ġbig": 3729,
      "Ġsiendo": 3730,
      "Ġess": 3731,
      "Ġmilitar": 3732,
      "Ġvalue": 3733,
      "anc": 3734,
      "Ġlive": 3735,
      "Ġthought": 3736,
      "Ġreally": 3737,
      "Ġbelow": 3738,
      "Ġlarg": 3739,
      "Ġgrowth": 3740,
      "Ġsufici": 3741,
      "ĠÂ«": 3742,
      "Ġaprend": 3743,
      "onal": 3744,
      "Ġsegundo": 3745,
      "Ġcannot": 3746,
      "Ġdep": 3747,
      "Ġcreated": 3748,
      "Ġfactor": 3749,
      "tures": 3750,
      "Ġinsp": 3751,
      "ĠBy": 3752,
      "ham": 3753,
      "ulta": 3754,
      "Ad": 3755,
      "Ġarticle": 3756,
      "Ġaddition": 3757,
      "reas": 3758,
      "Ġanimals": 3759,
      "arias": 3760,
      "Ġcirc": 3761,
      "Ġconsidered": 3762,
      "Ġactivity": 3763,
      "ĠfunciÃ³n": 3764,
      "Ġprovoc": 3765,
      "erve": 3766,
      "ilos": 3767,
      "uper": 3768,
      "Ġwhole": 3769,
      "Ġgrupos": 3770,
      "cons": 3771,
      "Ġactivities": 3772,
      "ĠinvestigaciÃ³n": 3773,
      "utr": 3774,
      "Ġbill": 3775,
      "yo": 3776,
      "Ġquestions": 3777,
      "Ġreserv": 3778,
      "ĠpoblaciÃ³n": 3779,
      "Ġtypes": 3780,
      "entemente": 3781,
      "Ġdest": 3782,
      "Ġrelated": 3783,
      "Ġsize": 3784,
      "tention": 3785,
      "Ġmanif": 3786,
      "Ġinterac": 3787,
      "Ġdiabetes": 3788,
      "On": 3789,
      "urante": 3790,
      "umentos": 3791,
      "Ġrespir": 3792,
      "ĠSol": 3793,
      "Ġblack": 3794,
      ");": 3795,
      "Ġobra": 3796,
      "Ġscientists": 3797,
      "culo": 3798,
      "Ġbuilding": 3799,
      "Cu": 3800,
      "Ġpueda": 3801,
      "Ġrespond": 3802,
      "Ġconsist": 3803,
      "Ġalmost": 3804,
      "Ġaz": 3805,
      "irst": 3806,
      "EC": 3807,
      "Ġcentro": 3808,
      "jects": 3809,
      "orpor": 3810,
      "Ġmakes": 3811,
      "Ġalrededor": 3812,
      "Ġmoder": 3813,
      "Ġrecomm": 3814,
      "Ġfer": 3815,
      "ĠWin": 3816,
      "Ġpractic": 3817,
      "Ġweek": 3818,
      "ann": 3819,
      "ĠOb": 3820,
      "ĠTod": 3821,
      "izar": 3822,
      "enn": 3823,
      "Ġproducts": 3824,
      "Ġelev": 3825,
      "Ġamount": 3826,
      "Ġexplic": 3827,
      "Ġsem": 3828,
      "Ġata": 3829,
      "Ġimplement": 3830,
      "Ġbusiness": 3831,
      "Ġentire": 3832,
      "Ġtook": 3833,
      "Ġcontribu": 3834,
      "Ġmiembros": 3835,
      "Ġachie": 3836,
      "Ġpi": 3837,
      "ĠHum": 3838,
      "Ġabil": 3839,
      "bur": 3840,
      "Ġtell": 3841,
      "imos": 3842,
      "ĠÃ³": 3843,
      "Ġbehavior": 3844,
      "Ġpeso": 3845,
      "Ġquality": 3846,
      "Ġfrente": 3847,
      "vey": 3848,
      "Ġstory": 3849,
      "Ġcompos": 3850,
      "Ġtransform": 3851,
      "ĠMc": 3852,
      "Ġhorm": 3853,
      "Ġmantener": 3854,
      "ED": 3855,
      "ĠSchool": 3856,
      "AM": 3857,
      "Ġnerv": 3858,
      "Ġself": 3859,
      "encial": 3860,
      "isti": 3861,
      "Ġcomputer": 3862,
      "Ġadv": 3863,
      "Ġnature": 3864,
      "Ġdirector": 3865,
      "Ġassociated": 3866,
      "Ġexperiment": 3867,
      "Ġsolici": 3868,
      "ĠDepartment": 3869,
      "Ġcambios": 3870,
      "nam": 3871,
      "Ġentren": 3872,
      "Ġyet": 3873,
      "Ġneeded": 3874,
      "Ġluch": 3875,
      "Ġpare": 3876,
      "abe": 3877,
      "Ġvideo": 3878,
      "sing": 3879,
      "ĠÃ³r": 3880,
      "Ġtas": 3881,
      "lean": 3882,
      "Ġprovides": 3883,
      "Ġcerca": 3884,
      "Ġmir": 3885,
      "ified": 3886,
      "ĠNacional": 3887,
      "ince": 3888,
      "Ġcomplic": 3889,
      "Ġnews": 3890,
      "let": 3891,
      "ÃŃgen": 3892,
      "ĠalgÃºn": 3893,
      "ery": 3894,
      "atal": 3895,
      "Ġlegal": 3896,
      "inc": 3897,
      "Ġengine": 3898,
      "Ġoil": 3899,
      "Ġmeta": 3900,
      "Ġtales": 3901,
      "Ġclaim": 3902,
      "Ġefecto": 3903,
      "lands": 3904,
      "Ġpage": 3905,
      "ference": 3906,
      "ÃŃd": 3907,
      "Ġmental": 3908,
      "Ġprincipio": 3909,
      "Ġjunto": 3910,
      "Ġinfec": 3911,
      "tivity": 3912,
      "Ġformas": 3913,
      "Ġterritor": 3914,
      "cito": 3915,
      "Ġoffic": 3916,
      "Ġlibert": 3917,
      "uf": 3918,
      "Ġimportantes": 3919,
      "uebas": 3920,
      "Ġmicro": 3921,
      "Ġmonths": 3922,
      "sa": 3923,
      "How": 3924,
      "yes": 3925,
      "Ġocup": 3926,
      "Ġrest": 3927,
      "Ġpredic": 3928,
      "Ġcateg": 3929,
      "Ġconte": 3930,
      "ĠConstitu": 3931,
      "Ġpermite": 3932,
      "Ġgol": 3933,
      "ĠVir": 3934,
      "ute": 3935,
      "Ġsistem": 3936,
      "ĠScience": 3937,
      "Ġconstr": 3938,
      "Ġextern": 3939,
      "Ġenfr": 3940,
      "pti": 3941,
      "Ġpaper": 3942,
      "ample": 3943,
      "Ġtuvo": 3944,
      "Ġrequired": 3945,
      "unci": 3946,
      "ĠfÃ¡cil": 3947,
      "Ġil": 3948,
      "ored": 3949,
      "Ġchemical": 3950,
      "Ġcorrespond": 3951,
      "Ġskin": 3952,
      "ĠpresiÃ³n": 3953,
      "Ġmind": 3954,
      "bra": 3955,
      "Ġpalabra": 3956,
      "gn": 3957,
      "ĠIndia": 3958,
      "Ġdinero": 3959,
      "ĠSer": 3960,
      "Ġagre": 3961,
      "Ġlink": 3962,
      "Est": 3963,
      "ĠInstitute": 3964,
      "Ġsure": 3965,
      "Ġservices": 3966,
      "ĠPal": 3967,
      "ping": 3968,
      "ars": 3969,
      "Ġmot": 3970,
      "echan": 3971,
      "Ġtec": 3972,
      "Ġstart": 3973,
      "Ġrecursos": 3974,
      "Ġasoci": 3975,
      "ota": 3976,
      "Ġprograms": 3977,
      "ĠJan": 3978,
      "Ġnacional": 3979,
      "Ġbuena": 3980,
      "ĠlÃŃnea": 3981,
      "ĠÃī": 3982,
      "Ġcampo": 3983,
      "alizaciÃ³n": 3984,
      "orge": 3985,
      "Ġshar": 3986,
      "ĠMedic": 3987,
      "Ġpadre": 3988,
      "Ġx": 3989,
      "rought": 3990,
      "Ġdro": 3991,
      "Ġinmedi": 3992,
      "Ġmand": 3993,
      "ested": 3994,
      "clud": 3995,
      "ony": 3996,
      "Ġcondition": 3997,
      "Ġherman": 3998,
      "ee": 3999,
      "Ġpotential": 4000,
      "Ġdepres": 4001,
      "ieren": 4002,
      "Ġoffici": 4003,
      "mission": 4004,
      "Ġservicio": 4005,
      "Ġintens": 4006,
      "apy": 4007,
      "Ġfederal": 4008,
      "ĠApr": 4009,
      "Ġcy": 4010,
      "Ġalcohol": 4011,
      "Ġinm": 4012,
      "Ã©tica": 4013,
      "Ġparts": 4014,
      "forma": 4015,
      "Ġrecent": 4016,
      "Ġantigu": 4017,
      "Ġdecre": 4018,
      "Ġvan": 4019,
      "Ġfrecuencia": 4020,
      "vant": 4021,
      "pan": 4022,
      "ĠAlgun": 4023,
      "Ġvista": 4024,
      "erous": 4025,
      "itch": 4026,
      "Tr": 4027,
      "ĠSch": 4028,
      "time": 4029,
      "Ġexcep": 4030,
      "Ġsoftware": 4031,
      "He": 4032,
      "ĠÃ¡rea": 4033,
      "Ġearth": 4034,
      "Ġutilizar": 4035,
      "ĊĊ": 4036,
      "tained": 4037,
      "ÃŃne": 4038,
      "Ã¡tico": 4039,
      "aca": 4040,
      "rÃŃa": 4041,
      "Ġschools": 4042,
      "Ġimpact": 4043,
      "ĠÃºltim": 4044,
      "Ġsubst": 4045,
      "Ġpolicy": 4046,
      "ĠLin": 4047,
      "Ġaire": 4048,
      "Ġactually": 4049,
      "etos": 4050,
      "Cuando": 4051,
      "ai": 4052,
      "idge": 4053,
      "lege": 4054,
      "ĠhabÃŃan": 4055,
      "Ġhon": 4056,
      "Ġsitio": 4057,
      "Ġreview": 4058,
      "ĠTer": 4059,
      "gy": 4060,
      "Ġdivid": 4061,
      "olesc": 4062,
      "ĠbebÃ©": 4063,
      "ĠÃ©p": 4064,
      "Ġregul": 4065,
      "Ġcommunic": 4066,
      "Ġcomplex": 4067,
      "Ġfire": 4068,
      "Ġissues": 4069,
      "Ġalta": 4070,
      "Ġexiste": 4071,
      "Ġadult": 4072,
      "Ġsed": 4073,
      "otos": 4074,
      "Ġmaterials": 4075,
      "icans": 4076,
      "Ġaprob": 4077,
      "ius": 4078,
      "Ġamor": 4079,
      "Ġhem": 4080,
      "Ġple": 4081,
      "acias": 4082,
      "ĠIS": 4083,
      "Ġtext": 4084,
      "Ġregard": 4085,
      "lin": 4086,
      "Ġmagn": 4087,
      "Ġreported": 4088,
      "ending": 4089,
      "adem": 4090,
      "Ġlay": 4091,
      "ÃŃos": 4092,
      "Ġdocument": 4093,
      "ze": 4094,
      "Ġmur": 4095,
      "Ġesti": 4096,
      "Ġren": 4097,
      "ĠorganizaciÃ³n": 4098,
      "Ġsugg": 4099,
      "elig": 4100,
      "Ġoportun": 4101,
      "guien": 4102,
      "Ġchall": 4103,
      "ĠMor": 4104,
      "Ġsegunda": 4105,
      "Ġcaused": 4106,
      "Ġarter": 4107,
      "ĠBro": 4108,
      "Ġcontact": 4109,
      "tec": 4110,
      "Ġtit": 4111,
      "EL": 4112,
      "Ġmostr": 4113,
      "Ġenem": 4114,
      "ĠAdemÃ¡s": 4115,
      "ank": 4116,
      "icul": 4117,
      "ĠHol": 4118,
      "ĠEv": 4119,
      "Ġarti": 4120,
      "otros": 4121,
      "Ġfrien": 4122,
      "Ġmenor": 4123,
      "Ġdiscover": 4124,
      "Ġprotect": 4125,
      "ĠChar": 4126,
      "Ġrepl": 4127,
      "ĠAug": 4128,
      "Ġasegur": 4129,
      "Ġmadre": 4130,
      "Ġlives": 4131,
      "Ġclase": 4132,
      "aco": 4133,
      "Ġstudent": 4134,
      "Ġmanagement": 4135,
      "Ġreun": 4136,
      "Ã©rd": 4137,
      "ÃŃtulo": 4138,
      "Ġprior": 4139,
      "ivos": 4140,
      "irse": 4141,
      "Ġfab": 4142,
      "Ġvas": 4143,
      "Ġattr": 4144,
      "Ġlic": 4145,
      "iba": 4146,
      "Ġprocedimiento": 4147,
      "esis": 4148,
      "Ġveloci": 4149,
      "Ġnecessary": 4150,
      "Ġaction": 4151,
      "ĠprÃ³": 4152,
      "CÃ³mo": 4153,
      "Ġever": 4154,
      "Ġpacientes": 4155,
      "Ġpruebas": 4156,
      "entar": 4157,
      "ocup": 4158,
      "itation": 4159,
      "Ġheav": 4160,
      "Ġsuperfici": 4161,
      "Ġmano": 4162,
      "risto": 4163,
      "ĠdemÃ¡s": 4164,
      "Ġdismin": 4165,
      "Ġexperim": 4166,
      "Ġ:": 4167,
      "uk": 4168,
      "Ġpay": 4169,
      "Ġplane": 4170,
      "Ġhol": 4171,
      "When": 4172,
      "uments": 4173,
      "ĠÃºltimo": 4174,
      "men": 4175,
      "Ġzona": 4176,
      "Ġespecialmente": 4177,
      "Ġbab": 4178,
      "Ġwon": 4179,
      "Ġfactors": 4180,
      "ĠJer": 4181,
      "Ġmol": 4182,
      "uge": 4183,
      "ĠAfter": 4184,
      "Ġonline": 4185,
      "quir": 4186,
      "Ġopportun": 4187,
      "Ġi": 4188,
      "Ġseries": 4189,
      "estiÃ³n": 4190,
      "Ġejercicio": 4191,
      "ux": 4192,
      "Ġhumanos": 4193,
      "Ġelementos": 4194,
      "Ġeffective": 4195,
      "Ġconvers": 4196,
      "Ġpred": 4197,
      "Ġimper": 4198,
      "Ġled": 4199,
      "ĠWest": 4200,
      "Ġsolar": 4201,
      "Ġmatter": 4202,
      "Ã¡ndose": 4203,
      "Ġexerci": 4204,
      "Ġinterior": 4205,
      "illo": 4206,
      "Ġaliment": 4207,
      "ĠserÃŃa": 4208,
      "Ġnosotros": 4209,
      "Ġtrib": 4210,
      "iza": 4211,
      "Ġbecom": 4212,
      "Ġtema": 4213,
      "ĠDer": 4214,
      "Ġsurv": 4215,
      "ĠJapan": 4216,
      "Ġdemand": 4217,
      "Ġrecibir": 4218,
      "vas": 4219,
      "ĠanÃ¡lisis": 4220,
      "ij": 4221,
      "ĠKing": 4222,
      "Ġprimero": 4223,
      "dows": 4224,
      "Ġocurr": 4225,
      "trol": 4226,
      "Ġpie": 4227,
      "Ġpattern": 4228,
      "Ġenvironmental": 4229,
      "like": 4230,
      "Ġorient": 4231,
      "ners": 4232,
      "Ġposition": 4233,
      "Ġdeterm": 4234,
      "Ġpapel": 4235,
      "Ġpuer": 4236,
      "Ġparents": 4237,
      "Ġrelaciones": 4238,
      "tage": 4239,
      "usto": 4240,
      "oms": 4241,
      "Ġpen": 4242,
      "Ġhip": 4243,
      "aleza": 4244,
      "wise": 4245,
      "ĠPlan": 4246,
      "Ġgreater": 4247,
      "Ġmuestra": 4248,
      "Ġtaking": 4249,
      "Ġgreen": 4250,
      "Ġcoll": 4251,
      "uit": 4252,
      "ension": 4253,
      "Ġsatis": 4254,
      "ĠdifÃŃcil": 4255,
      "Ġmap": 4256,
      "Ġmoney": 4257,
      "Ġpier": 4258,
      "Ġllevar": 4259,
      "'re": 4260,
      "Ġimpres": 4261,
      "Ġnation": 4262,
      "ĠPress": 4263,
      "Ġseis": 4264,
      "ĠPubl": 4265,
      "Ġhablar": 4266,
      "Ġpresidente": 4267,
      "ĠenseÃ±": 4268,
      "Ġfa": 4269,
      "illas": 4270,
      "atorio": 4271,
      "ÃŃculos": 4272,
      "Ġtratar": 4273,
      "ĠningÃºn": 4274,
      "Ġability": 4275,
      "ĠMich": 4276,
      "Ġho": 4277,
      "But": 4278,
      "Ġcrisis": 4279,
      "Ġprevious": 4280,
      "Ġunderstanding": 4281,
      "Ġsufr": 4282,
      "Ġpesar": 4283,
      "drome": 4284,
      "reo": 4285,
      "urity": 4286,
      "Ġcuanto": 4287,
      "Ġprimeros": 4288,
      "ught": 4289,
      "Ġveh": 4290,
      "ĠWilliam": 4291,
      "Ġcarbon": 4292,
      "aged": 4293,
      "Ġshows": 4294,
      "cional": 4295,
      "Ġseguir": 4296,
      "Ġbuilt": 4297,
      "Ġhours": 4298,
      "Ġenfermedades": 4299,
      "Ġforce": 4300,
      "Ġincreasing": 4301,
      "Ġellas": 4302,
      "Ġsound": 4303,
      "Ġfactores": 4304,
      "OM": 4305,
      "Ġregres": 4306,
      "Ġpropio": 4307,
      "Ġstrateg": 4308,
      "Ġcrecimiento": 4309,
      "Ġinfer": 4310,
      "US": 4311,
      "Ġgal": 4312,
      "light": 4313,
      "Ġesf": 4314,
      "Ġingres": 4315,
      "pers": 4316,
      "ĠNov": 4317,
      "Ġsean": 4318,
      "ugÃŃa": 4319,
      "Ġens": 4320,
      "Ġgenerally": 4321,
      "ÃŃfico": 4322,
      "Ġrespuesta": 4323,
      "Ġsometimes": 4324,
      "Ġsuced": 4325,
      "Ġquick": 4326,
      "Ġsense": 4327,
      "ĠDo": 4328,
      "Ġtarde": 4329,
      "Ġespacio": 4330,
      "elling": 4331,
      "Ġlate": 4332,
      "ĠSup": 4333,
      "Ġsubject": 4334,
      "Ġmilitary": 4335,
      "Ġav": 4336,
      "Ġnorte": 4337,
      "Ġtax": 4338,
      "Ġescuela": 4339,
      "Ġsor": 4340,
      "ĠAssoci": 4341,
      "Ġtrue": 4342,
      "ls": 4343,
      "apar": 4344,
      "ague": 4345,
      "Ġadolesc": 4346,
      "Ġterms": 4347,
      "Ġpractice": 4348,
      "rench": 4349,
      "Ġlonger": 4350,
      "Ġnuclear": 4351,
      "ĠSm": 4352,
      "Ġmanos": 4353,
      "Ġdemas": 4354,
      "Ġpud": 4355,
      "Ġprefer": 4356,
      "Ġhot": 4357,
      "ĠComo": 4358,
      "Ġthroughout": 4359,
      "Ġpec": 4360,
      "Ġpoor": 4361,
      "ĠSc": 4362,
      "hood": 4363,
      "pose": 4364,
      "pri": 4365,
      "ĠrÃ¡p": 4366,
      "ĠMa": 4367,
      "Ġsouth": 4368,
      "Ġgrande": 4369,
      "Ġsaf": 4370,
      "ĠProgram": 4371,
      "Ġthreat": 4372,
      "Ġlibertad": 4373,
      "Ġforms": 4374,
      "fully": 4375,
      "Ġassess": 4376,
      "Ġinstal": 4377,
      "based": 4378,
      "Ġalguien": 4379,
      "Ġgir": 4380,
      "Ġsociales": 4381,
      "ĠFin": 4382,
      "Ġnuestros": 4383,
      "Ġattack": 4384,
      "Ġlot": 4385,
      "Ġpreocup": 4386,
      "cean": 4387,
      "CI": 4388,
      "Ġmit": 4389,
      "Ġnoche": 4390,
      "ĠrazÃ³n": 4391,
      "ĠCu": 4392,
      "Ġfeet": 4393,
      "Ġguard": 4394,
      "Ġparece": 4395,
      "Ġllamado": 4396,
      "ĠJos": 4397,
      "fin": 4398,
      "ÃŃodo": 4399,
      "Ġaverage": 4400,
      "orÃŃas": 4401,
      "Ġstructure": 4402,
      "Ã¡gina": 4403,
      "pas": 4404,
      "Ġnov": 4405,
      "Ġlog": 4406,
      "Ġtyp": 4407,
      "Ġdesigned": 4408,
      "Ġapoyo": 4409,
      "ĠvÃŃ": 4410,
      "umb": 4411,
      "Ġocur": 4412,
      "itiz": 4413,
      "Ġservice": 4414,
      "Ġsecund": 4415,
      "ĠTexas": 4416,
      "oco": 4417,
      "orno": 4418,
      "Ġmarket": 4419,
      "Ġdispl": 4420,
      "Ġsir": 4421,
      "Ġattem": 4422,
      "ĠteorÃŃa": 4423,
      "Ġposi": 4424,
      "Ġsources": 4425,
      "Ġstandard": 4426,
      "Ġreducir": 4427,
      "Ġincludes": 4428,
      "Ġfalta": 4429,
      "imon": 4430,
      "Ġimage": 4431,
      "Ġweight": 4432,
      "Ġprom": 4433,
      "istro": 4434,
      "Ġindividu": 4435,
      "Ġpelig": 4436,
      "Ġdescubr": 4437,
      "Ġexact": 4438,
      "Ġhold": 4439,
      "Ġorigen": 4440,
      "rist": 4441,
      "Ġeleg": 4442,
      "Ġdici": 4443,
      "Ġcontamin": 4444,
      "cale": 4445,
      "ĠPued": 4446,
      "Ġases": 4447,
      "ĠInc": 4448,
      "Ġobjetivo": 4449,
      "Ġscientific": 4450,
      "Ġprove": 4451,
      "Âº": 4452,
      "Ġlibro": 4453,
      "ken": 4454,
      "Ã©d": 4455,
      "Ġdemoc": 4456,
      "ops": 4457,
      "icient": 4458,
      "ĠMarch": 4459,
      "ĠInform": 4460,
      "Ġconocimiento": 4461,
      "Ġevents": 4462,
      "Ġaproxim": 4463,
      "ierno": 4464,
      "Ġpuntos": 4465,
      "Ġcabo": 4466,
      "Ġdiet": 4467,
      "Ġrepresenta": 4468,
      "hy": 4469,
      "Ġanci": 4470,
      "encion": 4471,
      "DA": 4472,
      "enda": 4473,
      "Ġimpos": 4474,
      "Ġissue": 4475,
      "Ġadop": 4476,
      "Ġheld": 4477,
      "Ġaband": 4478,
      "Ġshown": 4479,
      "eness": 4480,
      "Ġrelationship": 4481,
      "ĠRed": 4482,
      "Ġprincipales": 4483,
      "Ġsemana": 4484,
      "arr": 4485,
      "alo": 4486,
      "Ġpaso": 4487,
      "Ġtemperature": 4488,
      "Ġclose": 4489,
      "zado": 4490,
      "unid": 4491,
      "know": 4492,
      "ĠJune": 4493,
      "ĠKe": 4494,
      "Ġdenomin": 4495,
      "avÃŃa": 4496,
      "Ġsearch": 4497,
      "idera": 4498,
      "Ġnecesita": 4499,
      "Ġsistemas": 4500,
      "Ġcombin": 4501,
      "ĠÃģ": 4502,
      "Ġpath": 4503,
      "Ġanalysis": 4504,
      "ĠUN": 4505,
      "Ġslow": 4506,
      "Ġvig": 4507,
      "Ġprobably": 4508,
      "Ġturn": 4509,
      "ĠInter": 4510,
      "ĠestÃ©": 4511,
      "Ġequip": 4512,
      "raft": 4513,
      "Ãºblica": 4514,
      "ĠpÃºblico": 4515,
      "ball": 4516,
      "ĠÃ©poca": 4517,
      "cin": 4518,
      "Ġmach": 4519,
      "iled": 4520,
      "Ġabsor": 4521,
      "Ġhaci": 4522,
      "Ġsites": 4523,
      "Ġspread": 4524,
      "Ġcuid": 4525,
      "Ġproduced": 4526,
      "ends": 4527,
      "Ġcommit": 4528,
      "Ġnaturaleza": 4529,
      "ĠInternational": 4530,
      "ĠNueva": 4531,
      "Ġhid": 4532,
      "Ġtecn": 4533,
      "Ġtama": 4534,
      "Ġang": 4535,
      "Ġcand": 4536,
      "phere": 4537,
      "Ġinvolved": 4538,
      "Ġequipos": 4539,
      "Ġtheory": 4540,
      "Ġuses": 4541,
      "ioso": 4542,
      "Ġdetect": 4543,
      "Ġmanten": 4544,
      "Ġtej": 4545,
      "Ġfuerte": 4546,
      "Ġcultural": 4547,
      "ET": 4548,
      "Ġavan": 4549,
      "Ġhund": 4550,
      "Ġcomes": 4551,
      "Ġincluyen": 4552,
      "Ġrecuper": 4553,
      "Ġpodemos": 4554,
      "Ġincluded": 4555,
      "Ġearl": 4556,
      "Ġautom": 4557,
      "Ġbelieve": 4558,
      "Ġtenga": 4559,
      "alk": 4560,
      "Ġwild": 4561,
      "ĠSeÃ±": 4562,
      "Ġsuje": 4563,
      "Ġhospital": 4564,
      "Ġminutos": 4565,
      "ses": 4566,
      "Ġincorpor": 4567,
      "Ġdemostr": 4568,
      "iso": 4569,
      "Ġlegisl": 4570,
      "ĠperÃŃodo": 4571,
      "ĠEstos": 4572,
      "Ġunas": 4573,
      "genes": 4574,
      "Ġninguna": 4575,
      "puestos": 4576,
      "ĠbÃ¡s": 4577,
      "Ġcauses": 4578,
      "iqu": 4579,
      "Ġpropia": 4580,
      "bel": 4581,
      "ĠeducaciÃ³n": 4582,
      "aja": 4583,
      "Ġtab": 4584,
      "Ġestaban": 4585,
      "Ġwritten": 4586,
      "unch": 4587,
      "bic": 4588,
      "Ġobjeto": 4589,
      "over": 4590,
      "Ġavoid": 4591,
      "Ġpret": 4592,
      "Ġinternational": 4593,
      "Ġestablished": 4594,
      "ĠCap": 4595,
      "Ġutiliza": 4596,
      "Ġphoto": 4597,
      "Ġche": 4598,
      "icity": 4599,
      "Ġprecis": 4600,
      "etro": 4601,
      "ĠpÃ©rd": 4602,
      "Ġjob": 4603,
      "iers": 4604,
      "Ġdou": 4605,
      "Ġmechan": 4606,
      "Ġsimply": 4607,
      "You": 4608,
      "tado": 4609,
      "Ġparticularly": 4610,
      "ala": 4611,
      "Ġreflec": 4612,
      "Ġpuedes": 4613,
      "ĠFlor": 4614,
      "Ġaquellos": 4615,
      "Ġambos": 4616,
      "Ġconsult": 4617,
      "Ġmenudo": 4618,
      "ky": 4619,
      "oper": 4620,
      "Ġdedic": 4621,
      "Ġdiferencia": 4622,
      "Ġextrem": 4623,
      "ĠAg": 4624,
      "Ġanimales": 4625,
      "Ġthing": 4626,
      "Ġdeep": 4627,
      "minis": 4628,
      "ĠCity": 4629,
      "ĠLat": 4630,
      "ĠLond": 4631,
      "Ġcontenido": 4632,
      "Ġnuevos": 4633,
      "ecause": 4634,
      "ĠBer": 4635,
      "Ġdeveloping": 4636,
      "ĠcirugÃŃa": 4637,
      "ĠÃ©ste": 4638,
      "Ġhacen": 4639,
      "Ġtrop": 4640,
      "Ġmath": 4641,
      "tiles": 4642,
      "Ġdescrip": 4643,
      "ĠJesÃºs": 4644,
      "dom": 4645,
      "Ġmedios": 4646,
      "Ġalum": 4647,
      "Ã©rcito": 4648,
      "Ġcontinue": 4649,
      "porta": 4650,
      "Ġesos": 4651,
      "Ġcontent": 4652,
      "Ġcrear": 4653,
      "Ġempresa": 4654,
      "Ġsmo": 4655,
      "icidad": 4656,
      "tiÃ³": 4657,
      "amed": 4658,
      "ÃŃcula": 4659,
      "Ġcosa": 4660,
      "Ġtrast": 4661,
      "mail": 4662,
      "Ġnorth": 4663,
      "tivamente": 4664,
      "Ġexperiencia": 4665,
      "Ġnumbers": 4666,
      "Ġserious": 4667,
      "entales": 4668,
      "my": 4669,
      "ĠquÃŃm": 4670,
      "Ġbreak": 4671,
      "cup": 4672,
      "Ġhora": 4673,
      "ĠBu": 4674,
      "ĠlÃŃqu": 4675,
      "Ġcad": 4676,
      "iger": 4677,
      "Ġcorpor": 4678,
      "Ġindividuals": 4679,
      "Ġnuevas": 4680,
      "ads": 4681,
      "iction": 4682,
      "ĠAsÃŃ": 4683,
      "Ġrey": 4684,
      "Ġemis": 4685,
      "ĠregiÃ³n": 4686,
      "Ġmove": 4687,
      "ĠSep": 4688,
      "iting": 4689,
      "ĠPark": 4690,
      "Ġquienes": 4691,
      "Ġesfuer": 4692,
      "Ġthous": 4693,
      "Ġcomplete": 4694,
      "Ġleyes": 4695,
      "Res": 4696,
      "ĠRiver": 4697,
      "Ġpp": 4698,
      "Ġwind": 4699,
      "Ġdemonstr": 4700,
      "trie": 4701,
      "ĠFrench": 4702,
      "ĠÃ©x": 4703,
      "Ġconflic": 4704,
      "Ġpresente": 4705,
      "ĠinfecciÃ³n": 4706,
      "Ġstop": 4707,
      "haps": 4708,
      "Ġvariety": 4709,
      "Ġcalcul": 4710,
      "uta": 4711,
      "ĠMD": 4712,
      "PA": 4713,
      "Ġaccid": 4714,
      "Ġcarrera": 4715,
      "Ġestuvo": 4716,
      "Ġquiere": 4717,
      "ĠmÃ©dicos": 4718,
      "Ġdicho": 4719,
      "ulf": 4720,
      "Ġmovement": 4721,
      "Ġobst": 4722,
      "ĠMus": 4723,
      "Ġdejar": 4724,
      "Ġskills": 4725,
      "Ġcerebro": 4726,
      "ĠSen": 4727,
      "ĠWeb": 4728,
      "xico": 4729,
      "Ġoutside": 4730,
      "Ġcalidad": 4731,
      "Ġmix": 4732,
      "Ġdamage": 4733,
      "Ġthus": 4734,
      "Ġacid": 4735,
      "Pr": 4736,
      "Ġtraining": 4737,
      "Ġalthough": 4738,
      "cks": 4739,
      "Ġsociety": 4740,
      "ÃŃficos": 4741,
      "Ġlista": 4742,
      "Ġsoil": 4743,
      "Ġcoloc": 4744,
      "Ġpermit": 4745,
      "Ġbring": 4746,
      "ĠpodrÃŃan": 4747,
      "Ġtransfer": 4748,
      "icional": 4749,
      "ĠMany": 4750,
      "RE": 4751,
      "Ġtown": 4752,
      "Ġcompeti": 4753,
      "ĠposiciÃ³n": 4754,
      "Ġcomport": 4755,
      "Ġwebs": 4756,
      "Ġresponse": 4757,
      "nas": 4758,
      "Ġbast": 4759,
      "ĠcaracterÃŃsticas": 4760,
      "Ġappl": 4761,
      "Ġdog": 4762,
      "aving": 4763,
      "Ġmusic": 4764,
      "cipl": 4765,
      "Ġneg": 4766,
      "Ġvisual": 4767,
      "Ġwhose": 4768,
      "Ġheat": 4769,
      "ĠMundial": 4770,
      "yle": 4771,
      "Ġacep": 4772,
      "Ġinflam": 4773,
      "tien": 4774,
      "ift": 4775,
      "Ġmonitor": 4776,
      "Ġencuentran": 4777,
      "Ġobject": 4778,
      "ĠChild": 4779,
      "water": 4780,
      "ĠMex": 4781,
      "Ġmatr": 4782,
      "Ġescal": 4783,
      "Ġindustry": 4784,
      "Ġcomput": 4785,
      "Ġfundamental": 4786,
      "encies": 4787,
      "Ġalter": 4788,
      "ella": 4789,
      "Ġemploy": 4790,
      "onic": 4791,
      "ĠApril": 4792,
      "Ġsalv": 4793,
      "war": 4794,
      "ĠAct": 4795,
      "Ġprem": 4796,
      "Ġrock": 4797,
      "Ġvictor": 4798,
      "american": 4799,
      "Ġimportancia": 4800,
      "Ġsecre": 4801,
      "Ġwarm": 4802,
      "Ġhumano": 4803,
      "Ġstress": 4804,
      "Ġnecesidad": 4805,
      "Esta": 4806,
      "Ġ...": 4807,
      "Ġprohib": 4808,
      "Ã³stico": 4809,
      "Ġimagen": 4810,
      "ĠtamaÃ±o": 4811,
      "Ġrecomend": 4812,
      "Ġdesem": 4813,
      "ĠMod": 4814,
      "Â°": 4815,
      "Ġpuesto": 4816,
      "ĠWhile": 4817,
      "Ġpreguntas": 4818,
      "cles": 4819,
      "Ġproduct": 4820,
      "Ġmeaning": 4821,
      "dro": 4822,
      "Ġmercado": 4823,
      "Ġmoun": 4824,
      "enses": 4825,
      "ĠtodavÃŃa": 4826,
      "alizar": 4827,
      "Ġprogramas": 4828,
      "ka": 4829,
      "Ġconcre": 4830,
      "ÃŃdo": 4831,
      "ĠSus": 4832,
      "ĠpequeÃ±o": 4833,
      "acciÃ³n": 4834,
      "lim": 4835,
      "Ġtravel": 4836,
      "zan": 4837,
      "Ġtare": 4838,
      "stas": 4839,
      "ĠRep": 4840,
      "Ġfuerzas": 4841,
      "tember": 4842,
      "Ġproducir": 4843,
      "ĠinterÃ©s": 4844,
      "Ġclean": 4845,
      "ĠMost": 4846,
      "ishing": 4847,
      "Ġbasic": 4848,
      "Ġvelocidad": 4849,
      "Ġestadounid": 4850,
      "Ġface": 4851,
      "ĠHay": 4852,
      "ander": 4853,
      "tag": 4854,
      "Ġprimary": 4855,
      "aily": 4856,
      "Ġfabric": 4857,
      "Ġstra": 4858,
      "Ġimprove": 4859,
      "Ġpil": 4860,
      "where": 4861,
      "quis": 4862,
      "Ġdificult": 4863,
      "Ġmayores": 4864,
      "ĠEE": 4865,
      "Pero": 4866,
      "Ġconjunto": 4867,
      "Ġmodelo": 4868,
      "ĠHistory": 4869,
      "gent": 4870,
      "esiÃ³n": 4871,
      "idor": 4872,
      "ĠJuly": 4873,
      "acts": 4874,
      "lying": 4875,
      "Ġign": 4876,
      "ĠAss": 4877,
      "ĠDirec": 4878,
      "ĠRuss": 4879,
      "Ġassist": 4880,
      "Ġlack": 4881,
      "usiÃ³n": 4882,
      "astro": 4883,
      "Ġpsych": 4884,
      "ha": 4885,
      "Ġann": 4886,
      "Ġdesp": 4887,
      "Ġaccom": 4888,
      "Ġproducto": 4889,
      "RO": 4890,
      "Ġincid": 4891,
      "verse": 4892,
      "ĠPresident": 4893,
      "Ġmolec": 4894,
      "ĠDiv": 4895,
      "Ġencour": 4896,
      "arÃ¡n": 4897,
      "ĠPo": 4898,
      "dr": 4899,
      "Ġbuen": 4900,
      "Ġconven": 4901,
      "ĠOp": 4902,
      "Ġdetermine": 4903,
      "Ġsuffer": 4904,
      "ĠMÃ©": 4905,
      "Ġfib": 4906,
      "ĠFrancis": 4907,
      "Ġcuar": 4908,
      "Ġindustrial": 4909,
      "Ġnetwork": 4910,
      "So": 4911,
      "Ġran": 4912,
      "Ġcomunidad": 4913,
      "Ġfuel": 4914,
      "Ġgain": 4915,
      "ua": 4916,
      "Ġmess": 4917,
      "Ġmec": 4918,
      "Ġconclus": 4919,
      "Ġdado": 4920,
      "ĠSeÃ±or": 4921,
      "Ġsuel": 4922,
      "Ġexplor": 4923,
      "Ġmethods": 4924,
      "fied": 4925,
      "ming": 4926,
      "bern": 4927,
      "Ġtherefore": 4928,
      "Ġincrement": 4929,
      "Ġprinci": 4930,
      "Ġcompet": 4931,
      "ilosoph": 4932,
      "tienen": 4933,
      "Ġhealthy": 4934,
      "Ġtemporada": 4935,
      "Ġanswer": 4936,
      "Ġcoast": 4937,
      "Ġfres": 4938,
      "ĠEspaÃ±a": 4939,
      "Ã³digo": 4940,
      "Ġcenter": 4941,
      "Ġscre": 4942,
      "Ġlimp": 4943,
      "arily": 4944,
      "ĠAle": 4945,
      "erÃŃa": 4946,
      "Ġhall": 4947,
      "Ġprincipios": 4948,
      "Ġdeal": 4949,
      "zca": 4950,
      "ĠAng": 4951,
      "Ġwall": 4952,
      "Ġcamino": 4953,
      "Ġattention": 4954,
      "Ġbroad": 4955,
      "Â·": 4956,
      "ĠEuropean": 4957,
      "Ġojos": 4958,
      "ticamente": 4959,
      "Ġlarger": 4960,
      "Ġsection": 4961,
      "life": 4962,
      "vieron": 4963,
      "Ġbul": 4964,
      "Ã¡genes": 4965,
      "ĠMore": 4966,
      "Ã³lar": 4967,
      "turas": 4968,
      "ĠPhil": 4969,
      "teriores": 4970,
      "Ġponer": 4971,
      "Ġaffect": 4972,
      "Ġmismos": 4973,
      "Ġgrowing": 4974,
      "Ġadj": 4975,
      "iest": 4976,
      "ising": 4977,
      "Ġcontacto": 4978,
      "ĠÃ¡r": 4979,
      "ĠÃºnico": 4980,
      "Ġtelevis": 4981,
      "Ġband": 4982,
      "Ġfirm": 4983,
      "ĠAfrica": 4984,
      "Ġimmedi": 4985,
      "ificar": 4986,
      "Ġprogres": 4987,
      "ĠBra": 4988,
      "Ã¡b": 4989,
      "imes": 4990,
      "tober": 4991,
      "ĠMal": 4992,
      "Ġadditional": 4993,
      "usta": 4994,
      "Ġec": 4995,
      "ĠCivil": 4996,
      "ÃŃstica": 4997,
      "Ġadded": 4998,
      "Ġsujeto": 4999,
      "ĠVer": 5000,
      "Ġaumento": 5001,
      "itect": 5002,
      "uye": 5003,
      "Ġconform": 5004,
      "Ġencar": 5005,
      "Ġtemp": 5006,
      "Ġlect": 5007,
      "ĠSociety": 5008,
      "eche": 5009,
      "ĠDem": 5010,
      "Ġminim": 5011,
      "ĠpequeÃ±os": 5012,
      "Ġintr": 5013,
      "term": 5014,
      "Ġwood": 5015,
      "Ġreproduc": 5016,
      "Ġnearly": 5017,
      "ĠJames": 5018,
      "Ġreceived": 5019,
      "eign": 5020,
      "Ġthird": 5021,
      "leep": 5022,
      "Ġchallen": 5023,
      "Ġsector": 5024,
      "ieran": 5025,
      "Ġgeneralmente": 5026,
      "eth": 5027,
      "Ġdisc": 5028,
      "tÃ³": 5029,
      "Ã©g": 5030,
      "Ã©ctr": 5031,
      "Ġadel": 5032,
      "book": 5033,
      "Ġinstead": 5034,
      "Ġrol": 5035,
      "Ġsqu": 5036,
      "eks": 5037,
      "Ġhabl": 5038,
      "Ġtox": 5039,
      "orders": 5040,
      "ĠAugust": 5041,
      "Ġtry": 5042,
      "Ġcontem": 5043,
      "imen": 5044,
      "Ġnovel": 5045,
      "Ġappropri": 5046,
      "Ġspo": 5047,
      "Ġhier": 5048,
      "ĠRev": 5049,
      "ENT": 5050,
      "inical": 5051,
      "Ġeta": 5052,
      "ĠdÃ³lar": 5053,
      "Ġpros": 5054,
      "equ": 5055,
      "Ġcic": 5056,
      "Ġincluyendo": 5057,
      "Ġwriting": 5058,
      "Ġestructura": 5059,
      "Ġmedidas": 5060,
      "Ġshall": 5061,
      "ĠInf": 5062,
      "Ġgovern": 5063,
      "ĠAsia": 5064,
      "Ġbirth": 5065,
      "Ġseguro": 5066,
      "Ġquite": 5067,
      "Ġatmos": 5068,
      "ĠEuropa": 5069,
      "vement": 5070,
      "orr": 5071,
      "ĠpÃ¡gina": 5072,
      "ĠChrist": 5073,
      "Ġreading": 5074,
      "Ġbarr": 5075,
      "Ġtexto": 5076,
      "ST": 5077,
      "att": 5078,
      "Ġcross": 5079,
      "Ġfis": 5080,
      "Ġcolum": 5081,
      "Ġcierto": 5082,
      "Ġtests": 5083,
      "venir": 5084,
      "ĠhistÃ³r": 5085,
      "ĠChristian": 5086,
      "Ġreligious": 5087,
      "Ġeasy": 5088,
      "Ġprovin": 5089,
      "ancy": 5090,
      "ASA": 5091,
      "Ġdemasiado": 5092,
      "idel": 5093,
      "izquier": 5094,
      "Ġpartido": 5095,
      "Ġhundred": 5096,
      "Â¡": 5097,
      "este": 5098,
      "ĠOff": 5099,
      "Ġcompany": 5100,
      "clo": 5101,
      "Ġhog": 5102,
      "Ġerr": 5103,
      "Ġsafety": 5104,
      "miti": 5105,
      "year": 5106,
      "Ġposterior": 5107,
      "ĠJuan": 5108,
      "iete": 5109,
      "Ġprogress": 5110,
      "ximo": 5111,
      ".[": 5112,
      "Ġtrial": 5113,
      "Ġmoral": 5114,
      "ĠAfrican": 5115,
      "Ġdisting": 5116,
      "Ġwent": 5117,
      "ĠdÃ©": 5118,
      "Ġsangu": 5119,
      "ields": 5120,
      "ĠSa": 5121,
      "ĠVol": 5122,
      "Ġbrought": 5123,
      "ĠJournal": 5124,
      "ĠdirecciÃ³n": 5125,
      "Ġculture": 5126,
      "IA": 5127,
      "ael": 5128,
      "ulations": 5129,
      "igur": 5130,
      "Ġevolution": 5131,
      "Ġdesarrollar": 5132,
      "Ġmaintain": 5133,
      "Ġvoc": 5134,
      "Ġeth": 5135,
      "ĠTur": 5136,
      "Ãºa": 5137,
      "ĠJanuary": 5138,
      "rote": 5139,
      "Ġgot": 5140,
      "Ġreturn": 5141,
      "Ġnight": 5142,
      "forts": 5143,
      "ĠSocial": 5144,
      "Ġeat": 5145,
      "Ġsue": 5146,
      "ĠSim": 5147,
      "ĠPed": 5148,
      "ecut": 5149,
      "ĠallÃŃ": 5150,
      "onia": 5151,
      "ĠGeorge": 5152,
      "Ġproyecto": 5153,
      "Ġplas": 5154,
      "umen": 5155,
      "edia": 5156,
      "crimin": 5157,
      "Ġdepart": 5158,
      "ĠAmericans": 5159,
      "Ġexisten": 5160,
      "Ġdescribed": 5161,
      "ĠEngland": 5162,
      "Ġabandon": 5163,
      "quil": 5164,
      "ielo": 5165,
      "Ġseems": 5166,
      "ĠOrgan": 5167,
      "Ġsemanas": 5168,
      "tit": 5169,
      "Ġabier": 5170,
      "Ġkids": 5171,
      "icano": 5172,
      "Ġdeterminar": 5173,
      "gue": 5174,
      "cidas": 5175,
      "Ġfen": 5176,
      "ĠJo": 5177,
      "ualmente": 5178,
      "win": 5179,
      "ianza": 5180,
      "Ġdiagn": 5181,
      "Ġrevel": 5182,
      "Ġdirectly": 5183,
      "wor": 5184,
      "Ã³nica": 5185,
      "Ġrit": 5186,
      "Ġinfection": 5187,
      "ĠmÃ©dica": 5188,
      "olo": 5189,
      "tividad": 5190,
      "ĠProf": 5191,
      "Ġmejorar": 5192,
      "ĠOf": 5193,
      "uela": 5194,
      "Ġplazo": 5195,
      "Ġpersp": 5196,
      "Ġinternacional": 5197,
      "AP": 5198,
      "Ġizquier": 5199,
      "Ġllama": 5200,
      "Ġantib": 5201,
      "ct": 5202,
      "Ġpasar": 5203,
      "ĠAssociation": 5204,
      "kes": 5205,
      "Ġdoing": 5206,
      "Ġbooks": 5207,
      "unts": 5208,
      "bility": 5209,
      "ĠÃ©xito": 5210,
      "ĠTrans": 5211,
      "order": 5212,
      "aced": 5213,
      "sted": 5214,
      "ĠHIV": 5215,
      "Ġsoon": 5216,
      "Ġhimself": 5217,
      "ĠÃºltimos": 5218,
      "Ġalterna": 5219,
      "Ġsupply": 5220,
      "Ġexplo": 5221,
      "Ġtiss": 5222,
      "Ġimmun": 5223,
      "ĠimÃ¡genes": 5224,
      "Ġestudiantes": 5225,
      "ĠHigh": 5226,
      "Ġkil": 5227,
      "Ġfuturo": 5228,
      "Ġdrugs": 5229,
      "ĠAlthough": 5230,
      "ĠtÃ©rmino": 5231,
      "OL": 5232,
      "terapia": 5233,
      "Ġtree": 5234,
      "ĠCour": 5235,
      "Ġpoints": 5236,
      "ÃŃp": 5237,
      "rup": 5238,
      "Ġtoma": 5239,
      "Ġmane": 5240,
      "Ġhabil": 5241,
      "Ġvitamin": 5242,
      "Ġborn": 5243,
      "Ġpatient": 5244,
      "Ġdu": 5245,
      "Ġfuente": 5246,
      "Ġbeginning": 5247,
      "Ġintrodu": 5248,
      "puestas": 5249,
      "ĠEast": 5250,
      "Ġmarr": 5251,
      "Ġleaders": 5252,
      "Ġresol": 5253,
      "Ġconci": 5254,
      "ĠlÃŃder": 5255,
      "ĠTierra": 5256,
      "elas": 5257,
      "Ġexamen": 5258,
      "Ġproperty": 5259,
      "ministra": 5260,
      "bruary": 5261,
      "Ġsolamente": 5262,
      "Ġtraditional": 5263,
      "ef": 5264,
      "ÃŃrit": 5265,
      "Ġusu": 5266,
      "adie": 5267,
      "Ġstep": 5268,
      "ĠDespuÃ©s": 5269,
      "ĠpequeÃ±a": 5270,
      "Ġtakes": 5271,
      "Ġcompared": 5272,
      "Ġtable": 5273,
      "Ġaj": 5274,
      "ĠMil": 5275,
      "Ġprivate": 5276,
      "Ġciento": 5277,
      "Ġmember": 5278,
      "Ġconsegu": 5279,
      "Ġcheck": 5280,
      "Ġmel": 5281,
      "Ġcompan": 5282,
      "Ġexclus": 5283,
      "Ġdang": 5284,
      "ĠGran": 5285,
      "Ġclas": 5286,
      "Ġllamada": 5287,
      "ĠPers": 5288,
      "ude": 5289,
      "Ġregistr": 5290,
      "berg": 5291,
      "iego": 5292,
      "Ġorganism": 5293,
      "Ġlargest": 5294,
      "ĠpÃ©rdida": 5295,
      "Ġteachers": 5296,
      "ĠCounty": 5297,
      "ĠcomunicaciÃ³n": 5298,
      "ĠÃ³rgan": 5299,
      "Ġtrees": 5300,
      "Ġfoods": 5301,
      "ĠÃ¡reas": 5302,
      "Ġforces": 5303,
      "ĠPs": 5304,
      "Ġfamilies": 5305,
      "Ġresto": 5306,
      "Ġshare": 5307,
      "uma": 5308,
      "Ġperformance": 5309,
      "log": 5310,
      "ously": 5311,
      "inary": 5312,
      "ĠFre": 5313,
      "Ġsuficiente": 5314,
      "ĠChurch": 5315,
      "Ġvege": 5316,
      "Ġcitiz": 5317,
      "ĠaÃ±": 5318,
      "Ġsugges": 5319,
      "Ġcamp": 5320,
      "ground": 5321,
      "Ġejecu": 5322,
      "esting": 5323,
      "trieved": 5324,
      "estion": 5325,
      "ots": 5326,
      "venes": 5327,
      "uido": 5328,
      "Ġmundial": 5329,
      "Ġadults": 5330,
      "ĠsanguÃŃne": 5331,
      "ĠAmÃ©rica": 5332,
      "ĠSeptember": 5333,
      "aters": 5334,
      "Ġcred": 5335,
      "Ġagricult": 5336,
      "ĠMedicine": 5337,
      "Ġstrength": 5338,
      "inf": 5339,
      "Ġsentir": 5340,
      "ĠfÃŃsica": 5341,
      "ceed": 5342,
      "Ġmam": 5343,
      "Ġport": 5344,
      "ĠUnion": 5345,
      "Ġworkers": 5346,
      "Ã¡cter": 5347,
      "pher": 5348,
      "Ġprol": 5349,
      "Ġexpand": 5350,
      "Ġhaciendo": 5351,
      "alian": 5352,
      "Le": 5353,
      "Ġlaws": 5354,
      "Ġcriter": 5355,
      "Ġpresenta": 5356,
      "Ġformer": 5357,
      "Ġcrea": 5358,
      "Ġefforts": 5359,
      "Ġcel": 5360,
      "Ġnecesidades": 5361,
      "ÃŃculas": 5362,
      "Ġdoesn": 5363,
      "ĠJewish": 5364,
      "Ġapl": 5365,
      "And": 5366,
      "ĠRich": 5367,
      "Ġrestric": 5368,
      "Ġhechos": 5369,
      "ĠComp": 5370,
      "Ã¡ticos": 5371,
      "Ġrapid": 5372,
      "Ġcommunities": 5373,
      "Ġbenefits": 5374,
      "Ġwid": 5375,
      "ĠcarÃ¡cter": 5376,
      "____": 5377,
      "fico": 5378,
      "Ġfron": 5379,
      "ĠMÃ©xico": 5380,
      "Ġdeliver": 5381,
      "usion": 5382,
      "ĠMuse": 5383,
      "Ġmejores": 5384,
      "ĠBur": 5385,
      "................": 5386,
      "ĠCD": 5387,
      "tera": 5388,
      "Ġcro": 5389,
      "ĠÃºltima": 5390,
      "cell": 5391,
      "Ġhumans": 5392,
      "ĠaplicaciÃ³n": 5393,
      "Ġlost": 5394,
      "Ġvul": 5395,
      "Ġconocer": 5396,
      "cing": 5397,
      "ĠWindows": 5398,
      "ĠDecember": 5399,
      "Ġelabor": 5400,
      "Ġaccount": 5401,
      "Ġreve": 5402,
      "ĠBibl": 5403,
      "Ġsuperficie": 5404,
      "yright": 5405,
      "Ġdied": 5406,
      "Ã³venes": 5407,
      "ÃŃr": 5408,
      "Ã¡ndo": 5409,
      "Ġmonth": 5410,
      "Ġlenguaje": 5411,
      "Ġing": 5412,
      "Ġking": 5413,
      "Ġbaja": 5414,
      "ĠdÃ³lares": 5415,
      "RI": 5416,
      "Ġsat": 5417,
      "Ġesas": 5418,
      "Ġrates": 5419,
      "Ġderro": 5420,
      "tm": 5421,
      "yond": 5422,
      "ĠMag": 5423,
      "Ġactive": 5424,
      "Ġposibilidad": 5425,
      "action": 5426,
      "gery": 5427,
      "ĠCam": 5428,
      "Ġarmas": 5429,
      "Ġsafe": 5430,
      "Ġcontinued": 5431,
      "ĠprÃ¡ctica": 5432,
      "Ġlimited": 5433,
      "Me": 5434,
      "Ġminer": 5435,
      "ĠFirst": 5436,
      "Ġsigue": 5437,
      "Ġbit": 5438,
      "ĠEducation": 5439,
      "Ġvolunt": 5440,
      "Ġbaby": 5441,
      "ĠPen": 5442,
      "Ġuseful": 5443,
      "Ġcandid": 5444,
      "Lo": 5445,
      "ayos": 5446,
      "Ġexhib": 5447,
      "ĠdÃ©c": 5448,
      "ĠdecisiÃ³n": 5449,
      "ĠOctober": 5450,
      "fica": 5451,
      "ĠCanada": 5452,
      "ienda": 5453,
      "arden": 5454,
      "ergy": 5455,
      "Ġepis": 5456,
      "ĠSw": 5457,
      "Ãºl": 5458,
      "Ġmemory": 5459,
      "ĠeconomÃŃa": 5460,
      "aya": 5461,
      "odos": 5462,
      "Ġcri": 5463,
      "Ġvalores": 5464,
      "ĠJosÃ©": 5465,
      "ĠelÃ©ctr": 5466,
      "Ġice": 5467,
      "Ġquier": 5468,
      "ĠEj": 5469,
      "alled": 5470,
      "ox": 5471,
      "ĠAunque": 5472,
      "zing": 5473,
      "Ġrein": 5474,
      "Ġrepe": 5475,
      "ification": 5476,
      "Ġfile": 5477,
      "ams": 5478,
      "ĠMic": 5479,
      "itÃ©": 5480,
      "aging": 5481,
      "Ġamigos": 5482,
      "Ġconsci": 5483,
      "Ġ+": 5484,
      "ĠUniversidad": 5485,
      "ĠIgles": 5486,
      "Ġpresencia": 5487,
      "ered": 5488,
      "Ġcondu": 5489,
      "ĠIndian": 5490,
      "Ġtrabajar": 5491,
      "ĠCentral": 5492,
      "ĠAD": 5493,
      "ĠPan": 5494,
      "ald": 5495,
      "Ã©m": 5496,
      "ION": 5497,
      "ĠGreat": 5498,
      "Ġmateria": 5499,
      "uries": 5500,
      "Ġbehind": 5501,
      "ĠDan": 5502,
      "ĠArab": 5503,
      "Ã³nico": 5504,
      "estos": 5505,
      "Ġimages": 5506,
      "One": 5507,
      "Ġcommer": 5508,
      "ĠHo": 5509,
      "Ġvacc": 5510,
      "Ġeye": 5511,
      "Ġcultura": 5512,
      "ĠNav": 5513,
      "hora": 5514,
      "Ġelse": 5515,
      "Ġgetting": 5516,
      "ption": 5517,
      "Ġorg": 5518,
      "EM": 5519,
      "Ġlands": 5520,
      "ĠCre": 5521,
      "Ġexig": 5522,
      "Ġharm": 5523,
      "Ġlove": 5524,
      "Ġplanet": 5525,
      "istry": 5526,
      "Ġfight": 5527,
      "Ġentrada": 5528,
      "Ġmotor": 5529,
      "reet": 5530,
      "ĠIr": 5531,
      "Ġdescribe": 5532,
      "aly": 5533,
      "Ġspeak": 5534,
      "ondo": 5535,
      "Ġacceso": 5536,
      "ormal": 5537,
      "At": 5538,
      "room": 5539,
      "ĠtÃ©rminos": 5540,
      "Ġweeks": 5541,
      "Ġintest": 5542,
      "Ġancient": 5543,
      "lah": 5544,
      "ĠmÃ©todo": 5545,
      "ĠLey": 5546,
      "encil": 5547,
      "Ġbastante": 5548,
      "bed": 5549,
      "ĠConf": 5550,
      "Ġcontains": 5551,
      "Ġempresas": 5552,
      "ĠVirgin": 5553,
      "Ġlooking": 5554,
      "Ġaproximadamente": 5555,
      "Some": 5556,
      "ĠjurÃŃd": 5557,
      "Ġpregn": 5558,
      "Ġhighly": 5559,
      "Ġprotection": 5560,
      "Ġambiente": 5561,
      "ester": 5562,
      "Ġtools": 5563,
      "acas": 5564,
      "Ġlocated": 5565,
      "roup": 5566,
      "Ġintent": 5567,
      "Ġperfect": 5568,
      "ĠMedical": 5569,
      "Ġlig": 5570,
      "tee": 5571,
      "ĠLib": 5572,
      "ĠcondiciÃ³n": 5573,
      "ĠTechn": 5574,
      "oth": 5575,
      "Ġhands": 5576,
      "Ġpose": 5577,
      "yed": 5578,
      "ĠStr": 5579,
      "ĠRepÃºblica": 5580,
      "Ġpositive": 5581,
      "Ġabd": 5582,
      "Ġdiseases": 5583,
      "Ġtrade": 5584,
      "Ġremains": 5585,
      "Ġreform": 5586,
      "Ġdescon": 5587,
      "ship": 5588,
      "Ġinh": 5589,
      "medio": 5590,
      "ctions": 5591,
      "anas": 5592,
      "Ġdifference": 5593,
      "ĠMy": 5594,
      "Ġpropiedad": 5595,
      "iques": 5596,
      "Ġbillion": 5597,
      "Ġwebsite": 5598,
      "Ġvend": 5599,
      "viv": 5600,
      "osas": 5601,
      "ĠGrand": 5602,
      "ĠQue": 5603,
      "Ġtold": 5604,
      "ĠjÃ³venes": 5605,
      "Ġconcepto": 5606,
      "Ġmencion": 5607,
      "Ġwide": 5608,
      "ĠDel": 5609,
      "Ġquickly": 5610,
      "Ġfat": 5611,
      "acer": 5612,
      "ustom": 5613,
      "Ġmedicamento": 5614,
      "ĠCongress": 5615,
      "Ġobten": 5616,
      "Ġsusp": 5617,
      "ufact": 5618,
      "hold": 5619,
      "atas": 5620,
      "ĠMer": 5621,
      "Ġfront": 5622,
      "Ġprofund": 5623,
      "Ġleading": 5624,
      "ĠAustralia": 5625,
      "Ġconsumo": 5626,
      "Ġdraw": 5627,
      "Ġtenemos": 5628,
      "ĠXV": 5629,
      "Ġcru": 5630,
      "rado": 5631,
      "Ġastr": 5632,
      "Ġprotein": 5633,
      "Ġconocido": 5634,
      "ĠFound": 5635,
      "BN": 5636,
      "Ġacciones": 5637,
      "Ġstarted": 5638,
      "Ã¡ticas": 5639,
      "top": 5640,
      "ĠDay": 5641,
      "idores": 5642,
      "tery": 5643,
      "Ġdead": 5644,
      "Ġdestro": 5645,
      "ĠRetrieved": 5646,
      "Ġvolver": 5647,
      "Ġconsecuencia": 5648,
      "Ġcommand": 5649,
      "Ġlleva": 5650,
      "Ġremain": 5651,
      "Ġobjects": 5652,
      "Ġmigr": 5653,
      "Ġsustain": 5654,
      "Ġerror": 5655,
      "asons": 5656,
      "Ġflex": 5657,
      "Ġsevere": 5658,
      "ĠpolÃŃticas": 5659,
      "RA": 5660,
      "Ġtienes": 5661,
      "Ġobras": 5662,
      "Ġdim": 5663,
      "izaje": 5664,
      "Pre": 5665,
      "Ġdestruc": 5666,
      "Ġincluir": 5667,
      "cera": 5668,
      "roso": 5669,
      "ĠmÃŃ": 5670,
      "Ġsurg": 5671,
      "Ġseason": 5672,
      "Ġgenes": 5673,
      "Ġleche": 5674,
      "Ġinvas": 5675,
      "Ġtenido": 5676,
      "Ġpaciente": 5677,
      "Ġtot": 5678,
      "Ġcarry": 5679,
      "Ãĵ": 5680,
      "Ġacom": 5681,
      "ulares": 5682,
      "Ġexercise": 5683,
      "ari": 5684,
      "Ġterror": 5685,
      "Ġincluye": 5686,
      "eless": 5687,
      "vin": 5688,
      "como": 5689,
      "Ġbacteria": 5690,
      "Ġcollection": 5691,
      "Ġinvers": 5692,
      "ÃŃritu": 5693,
      "Ġcambiar": 5694,
      "ĠEstas": 5695,
      "ading": 5696,
      "ĠTen": 5697,
      "tured": 5698,
      "vid": 5699,
      "ĠFederal": 5700,
      "ĠYour": 5701,
      "used": 5702,
      "ĠDon": 5703,
      "Ġrecep": 5704,
      "ĠMid": 5705,
      "Ġfunciones": 5706,
      "Ġataque": 5707,
      "Ġconqu": 5708,
      "Ġbasis": 5709,
      "Como": 5710,
      "ems": 5711,
      "Ġhues": 5712,
      "ĠDNA": 5713,
      "Ġdate": 5714,
      "ients": 5715,
      "ĠOther": 5716,
      "UU": 5717,
      "olina": 5718,
      "ĠBay": 5719,
      "Ġfeatures": 5720,
      "Ġearlier": 5721,
      "tein": 5722,
      "ĠFlorida": 5723,
      "Ġta": 5724,
      "Ġinside": 5725,
      "Ġmultiple": 5726,
      "Ġeasily": 5727,
      "Ġdestr": 5728,
      "Ġtransport": 5729,
      "Ġace": 5730,
      "apter": 5731,
      "Ġtherapy": 5732,
      "itivo": 5733,
      "adoras": 5734,
      "ĠCop": 5735,
      "Ġcorte": 5736,
      "Ġsomeone": 5737,
      "ĠmÃºsica": 5738,
      "Ġweather": 5739,
      "Ġdark": 5740,
      "ĠFebruary": 5741,
      "Ġrealmente": 5742,
      "ĠBrit": 5743,
      "Ġmez": 5744,
      "Ġinfluence": 5745,
      "ira": 5746,
      "ĠBas": 5747,
      "Ġusa": 5748,
      "Ġsacr": 5749,
      "Ġhous": 5750,
      "Ġdiferente": 5751,
      "iritual": 5752,
      "Ġplaces": 5753,
      "Ġrecently": 5754,
      "Ġsummer": 5755,
      "ÃŃfica": 5756,
      "Ġreconoci": 5757,
      "Ġsabe": 5758,
      "Ġdaily": 5759,
      "Ġallows": 5760,
      "see": 5761,
      "Ġfollowed": 5762,
      "Ġvalues": 5763,
      "Ġestilo": 5764,
      "Ġcomer": 5765,
      "Ġdecision": 5766,
      "ĠHam": 5767,
      "iform": 5768,
      "utas": 5769,
      "Ġesqu": 5770,
      "uno": 5771,
      "ĠPublic": 5772,
      "ĠDar": 5773,
      "Ġfecha": 5774,
      "Ġbirds": 5775,
      "uff": 5776,
      "ĠHouse": 5777,
      "Ġgrado": 5778,
      "Ġsituation": 5779,
      "ogle": 5780,
      "Ġgobern": 5781,
      "reek": 5782,
      "Ġstandards": 5783,
      "Ġplaced": 5784,
      "ĠCas": 5785,
      "Ġmitad": 5786,
      "ĠIglesia": 5787,
      "ĠMuch": 5788,
      "Ġmotiv": 5789,
      "alized": 5790,
      "Ġcircul": 5791,
      "ĠprotecciÃ³n": 5792,
      "ĠPrim": 5793,
      "Ġjuegos": 5794,
      "OT": 5795,
      "Ġwrote": 5796,
      "ĠUr": 5797,
      "ĠdeberÃŃa": 5798,
      "Ġobjetos": 5799,
      "ĠNovember": 5800,
      "Ġnothing": 5801,
      "ienta": 5802,
      "Ġsecurity": 5803,
      "Ġcontrario": 5804,
      "ciendo": 5805,
      "ĠBel": 5806,
      "Ġpregunta": 5807,
      "ĠDevelop": 5808,
      "Ġprocesos": 5809,
      "Ġlines": 5810,
      "grafÃŃa": 5811,
      "Ġdefici": 5812,
      "back": 5813,
      "edom": 5814,
      "ĠGal": 5815,
      "Ġappropriate": 5816,
      "Ġacus": 5817,
      "Ġcargo": 5818,
      "Ġhumana": 5819,
      "Ġsiete": 5820,
      "Ġmiddle": 5821,
      "itable": 5822,
      "Ġcomunes": 5823,
      "ĠBol": 5824,
      "ĠAlgunos": 5825,
      "Ġcolec": 5826,
      "Ġgracias": 5827,
      "Ġvill": 5828,
      "Ġsequ": 5829,
      "Ġapproxim": 5830,
      "By": 5831,
      "iatr": 5832,
      "Ġlength": 5833,
      "Ġubic": 5834,
      "Ġtrabajadores": 5835,
      "Ġpien": 5836,
      "Ġwaste": 5837,
      "Ġdens": 5838,
      "aries": 5839,
      "Ġaccur": 5840,
      "apor": 5841,
      "Ġpin": 5842,
      "Ġfear": 5843,
      "ĠSon": 5844,
      "ĠpodÃŃa": 5845,
      "Ã³sito": 5846,
      "wide": 5847,
      "usal": 5848,
      "Ġmetal": 5849,
      "ĠespaÃ±ol": 5850,
      "ĠCristo": 5851,
      "Ġelements": 5852,
      "ĠTom": 5853,
      "ĠfÃŃsico": 5854,
      "Ġfeed": 5855,
      "Ġocurre": 5856,
      "Ġgrave": 5857,
      "Ġolder": 5858,
      "Ġbeneficios": 5859,
      "Ġpuedan": 5860,
      "Ġdosis": 5861,
      "ĠvÃŃc": 5862,
      "ĠInde": 5863,
      "Ġdestac": 5864,
      "Ġsurround": 5865,
      "ĠRoman": 5866,
      "dose": 5867,
      "Ã©tico": 5868,
      "pati": 5869,
      "ĠcontinuaciÃ³n": 5870,
      "olar": 5871,
      "ĠdiseÃ±": 5872,
      "ĠIII": 5873,
      "Ġdrink": 5874,
      "Ġinno": 5875,
      "head": 5876,
      "clam": 5877,
      "Ġsimplemente": 5878,
      "Ġstatus": 5879,
      "Ãį": 5880,
      "ĠCouncil": 5881,
      "ĠChin": 5882,
      "ĠpolÃŃtico": 5883,
      "Ġcou": 5884,
      "ĠformaciÃ³n": 5885,
      "Ġeffort": 5886,
      "Ġapplication": 5887,
      "Ġcuidado": 5888,
      "Ġbreast": 5889,
      "uts": 5890,
      "Ġti": 5891,
      "Ġimm": 5892,
      "irÃ¡": 5893,
      "Ġdestin": 5894,
      "Ġbad": 5895,
      "ĠVI": 5896,
      "urope": 5897,
      "ĠFrancisco": 5898,
      "name": 5899,
      "Ġdiscovered": 5900,
      "ih": 5901,
      "ĠGuerra": 5902,
      "Ġbalance": 5903,
      "Ġhabla": 5904,
      "htm": 5905,
      "Ġdiscipl": 5906,
      "Ġoccup": 5907,
      "Ġcausar": 5908,
      "Ġdic": 5909,
      "Ġnav": 5910,
      "Ġnamed": 5911,
      "Ġensure": 5912,
      "ĠÃ¡n": 5913,
      "ĠtenÃŃan": 5914,
      "ĠAdministr": 5915,
      "Sin": 5916,
      "ĠNASA": 5917,
      "ĠÃ©sta": 5918,
      "bly": 5919,
      "Ġwww": 5920,
      "set": 5921,
      "ĠSeg": 5922,
      "mark": 5923,
      "Ġreceive": 5924,
      "Ġcarreras": 5925,
      "Ġdirectamente": 5926,
      "Im": 5927,
      "Ġhaga": 5928,
      "Ġbod": 5929,
      "ĠCommun": 5930,
      "ae": 5931,
      "Ġconvir": 5932,
      "ĠFrom": 5933,
      "ĠGar": 5934,
      "ipp": 5935,
      "Ġmother": 5936,
      "Ġsaw": 5937,
      "Ġinvent": 5938,
      "ĠPaul": 5939,
      "Ġaprender": 5940,
      "ĠGreen": 5941,
      "kin": 5942,
      "Ġrepar": 5943,
      "Ġcoment": 5944,
      "Ġkm": 5945,
      "entially": 5946,
      "Ġequival": 5947,
      "Ġexposure": 5948,
      "Ġconect": 5949,
      "Ġcontiene": 5950,
      "tÃŃculo": 5951,
      "Ġformed": 5952,
      "Ġenci": 5953,
      "ĠSam": 5954,
      "Ġhacerlo": 5955,
      "Ġsleep": 5956,
      "Ġexistencia": 5957,
      "Ġversion": 5958,
      "ptiembre": 5959,
      "Ġabund": 5960,
      "Ġconsidera": 5961,
      "Ġsom": 5962,
      "tima": 5963,
      "ĠReview": 5964,
      "atural": 5965,
      "IL": 5966,
      "ĠcrÃŃ": 5967,
      "ĠArch": 5968,
      "Ġlograr": 5969,
      "acial": 5970,
      "ĠBen": 5971,
      "Ġpaz": 5972,
      "Ġmountain": 5973,
      "ibuted": 5974,
      "iosa": 5975,
      "ĠEnvironment": 5976,
      "ĠSystem": 5977,
      "isten": 5978,
      "antas": 5979,
      "atoria": 5980,
      "ulio": 5981,
      "Ġcontro": 5982,
      "Ġdetall": 5983,
      "Ġigles": 5984,
      "Ġpsic": 5985,
      "Ġasked": 5986,
      "ĠLou": 5987,
      "ĠHen": 5988,
      "Ġimplic": 5989,
      "bral": 5990,
      "Ġequil": 5991,
      "PS": 5992,
      "Ġ*": 5993,
      "ĠAir": 5994,
      "Ã³gen": 5995,
      "ĠRom": 5996,
      "ises": 5997,
      "tered": 5998,
      "ĠGovernment": 5999,
      "Ġinmun": 6000,
      "Ġgave": 6001,
      "tables": 6002,
      "ĠPap": 6003,
      "Ġrequires": 6004,
      "ĠUse": 6005,
      "ĠcreaciÃ³n": 6006,
      "Ġtemperatura": 6007,
      "dis": 6008,
      "ĠBre": 6009,
      "ĠJud": 6010,
      "ĠCollege": 6011,
      "Ġtin": 6012,
      "ĠTra": 6013,
      "Ġbienes": 6014,
      "Ġconstante": 6015,
      "more": 6016,
      "ĠLeague": 6017,
      "Ġrealiza": 6018,
      "iados": 6019,
      "Ġcalor": 6020,
      "Ã©is": 6021,
      "Ġterritorio": 6022,
      "ĠMary": 6023,
      "Ġcosts": 6024,
      "ĠÃºnica": 6025,
      "ging": 6026,
      "Ġblock": 6027,
      "key": 6028,
      "ĠProt": 6029,
      "Ġjoven": 6030,
      "ĠLondon": 6031,
      "ĠIN": 6032,
      "Ġcoordin": 6033,
      "UL": 6034,
      "ÃŃamos": 6035,
      "sequ": 6036,
      "Ġhici": 6037,
      "Ġvin": 6038,
      "Ġrequiere": 6039,
      "Ġcong": 6040,
      "Ġparal": 6041,
      "Ġgenetic": 6042,
      "ission": 6043,
      "Ġcompleto": 6044,
      "Ġfather": 6045,
      "Ġprojects": 6046,
      "Ġtri": 6047,
      "Ġcoc": 6048,
      "ĠpodrÃ¡": 6049,
      "Ġcircun": 6050,
      "inted": 6051,
      "ĠMad": 6052,
      "Ġsett": 6053,
      "Ġbate": 6054,
      "Ġphilosoph": 6055,
      "ĠLaw": 6056,
      "tonces": 6057,
      "UN": 6058,
      "Ġpreserv": 6059,
      "ĠAnti": 6060,
      "Ġtercer": 6061,
      "istir": 6062,
      "Ġdict": 6063,
      "Ġadministra": 6064,
      "Ġcritical": 6065,
      "posiciÃ³n": 6066,
      "ronic": 6067,
      "Ġcomportamiento": 6068,
      "come": 6069,
      "Ġestad": 6070,
      "eme": 6071,
      "ĠVirginia": 6072,
      "Or": 6073,
      "Ġsencil": 6074,
      "ĠSta": 6075,
      "antos": 6076,
      "ĠISBN": 6077,
      "ĠSmith": 6078,
      "Ġgluc": 6079,
      "Ġord": 6080,
      "Ġfuentes": 6081,
      "ijo": 6082,
      "Ġappears": 6083,
      "mal": 6084,
      "Ġcomplet": 6085,
      "Ġpurpose": 6086,
      "Ġmission": 6087,
      "Ġdry": 6088,
      "Ġresponsabilidad": 6089,
      "Ġaim": 6090,
      "Ġrich": 6091,
      "Ġgame": 6092,
      "Ġkill": 6093,
      "ĠTor": 6094,
      "Ġresponsible": 6095,
      "Ġminutes": 6096,
      "Ġcold": 6097,
      "Ġcontrolar": 6098,
      "Ġask": 6099,
      "Ġfoot": 6100,
      "Ġexpected": 6101,
      "gov": 6102,
      "ĠCanad": 6103,
      "--------": 6104,
      "pd": 6105,
      "Ġret": 6106,
      "estic": 6107,
      "ectively": 6108,
      "Ġhonor": 6109,
      "Ġallowed": 6110,
      "ĠSpan": 6111,
      "ured": 6112,
      "ĠRobert": 6113,
      "ĠaprobaciÃ³n": 6114,
      "Ġfast": 6115,
      "Ġcristi": 6116,
      "Ġmanufact": 6117,
      "Ġoccurs": 6118,
      "ĠclÃŃn": 6119,
      "enth": 6120,
      "Ġhemos": 6121,
      "Ġcompanies": 6122,
      "Ġideal": 6123,
      "ĠMoun": 6124,
      "Ġneuro": 6125,
      "osis": 6126,
      "Ġvag": 6127,
      "ĠRepubl": 6128,
      "ĠsoluciÃ³n": 6129,
      "Ġunidad": 6130,
      "Ġdiscrimin": 6131,
      "Ġvolun": 6132,
      "bas": 6133,
      "Ġcode": 6134,
      "Ġcit": 6135,
      "Ġidentified": 6136,
      "ville": 6137,
      "Ġcorrect": 6138,
      "olic": 6139,
      "ologist": 6140,
      "Ġcontex": 6141,
      "Ġdan": 6142,
      "Ġpack": 6143,
      "Ġentender": 6144,
      "Ġtesting": 6145,
      "Ġwinter": 6146,
      "Ġtumor": 6147,
      "Ġrise": 6148,
      "Ġneigh": 6149,
      "Ã¡nica": 6150,
      "Ġessential": 6151,
      "ĠMiss": 6152,
      "Ġgras": 6153,
      "Ġgoal": 6154,
      "arle": 6155,
      "Ġreports": 6156,
      "tubre": 6157,
      "Ġdisplay": 6158,
      "ĠmÃŃn": 6159,
      "Ġimpuls": 6160,
      "ĠllegÃ³": 6161,
      "itario": 6162,
      "Ġresta": 6163,
      "ĠconstrucciÃ³n": 6164,
      "ĠFrance": 6165,
      "Ġefec": 6166,
      "Ġegg": 6167,
      "Ġbuscar": 6168,
      "Ġconvertir": 6169,
      "Ġalone": 6170,
      "brero": 6171,
      "Ġcurrently": 6172,
      "Ġaumentar": 6173,
      "Ġperhaps": 6174,
      "ki": 6175,
      "ĠOs": 6176,
      "Ġenfrent": 6177,
      "Ġdoble": 6178,
      "isto": 6179,
      "Ġeconomy": 6180,
      "vious": 6181,
      "Ġforest": 6182,
      "Ġones": 6183,
      "Ġlugares": 6184,
      "Ġtarget": 6185,
      "pidamente": 6186,
      "Ġriver": 6187,
      "Ġimportance": 6188,
      "known": 6189,
      "Ġsla": 6190,
      "ologies": 6191,
      "Ġespos": 6192,
      "ĠNot": 6193,
      "Ġuser": 6194,
      "Ġformal": 6195,
      "ĠDeb": 6196,
      "tiz": 6197,
      "ĠInformation": 6198,
      "Ġciencia": 6199,
      "Ġapply": 6200,
      "uesto": 6201,
      "Ġidentify": 6202,
      "iable": 6203,
      "Ġpreci": 6204,
      "Ġfoto": 6205,
      "Ġnormas": 6206,
      "orado": 6207,
      "Ġapart": 6208,
      "Ġprocesses": 6209,
      "Ġnames": 6210,
      "Ġmention": 6211,
      "ĠBlack": 6212,
      "Ġcruz": 6213,
      "ĠSanta": 6214,
      "Ġanot": 6215,
      "Ġinferior": 6216,
      "ĠdiagnÃ³stico": 6217,
      "Ġsuele": 6218,
      "Ġforeign": 6219,
      "Ġconstruction": 6220,
      "unta": 6221,
      "ĠejÃ©rcito": 6222,
      "Ġsam": 6223,
      "Ġnoti": 6224,
      "amina": 6225,
      "Ġgrav": 6226,
      "Ġsatisfac": 6227,
      "estim": 6228,
      "Ġrob": 6229,
      "Ġextend": 6230,
      "ornos": 6231,
      "Amer": 6232,
      "Ġbeyond": 6233,
      "Ġphysici": 6234,
      "Ġoportunidad": 6235,
      "anj": 6236,
      "Ġacon": 6237,
      "Ġpeace": 6238,
      "UR": 6239,
      "Ġorganization": 6240,
      "Ġwoman": 6241,
      "Ġintelig": 6242,
      "Ġpies": 6243,
      "olÃ³gico": 6244,
      "Ġwa": 6245,
      "Ġwrite": 6246,
      "enezol": 6247,
      "enty": 6248,
      "acen": 6249,
      "Ġcomida": 6250,
      "izing": 6251,
      "ĠMuseum": 6252,
      "Ġhope": 6253,
      "Ġplante": 6254,
      "off": 6255,
      "itaciÃ³n": 6256,
      "Ġleaves": 6257,
      "Ġmezcl": 6258,
      "irs": 6259,
      "Ġdecisiones": 6260,
      "udd": 6261,
      "Ġrefle": 6262,
      "Ġpensamiento": 6263,
      "Ġartis": 6264,
      "ĠSee": 6265,
      "Ġdieta": 6266,
      "ĠMajor": 6267,
      "Ġarte": 6268,
      "Su": 6269,
      "Ġtechniques": 6270,
      "ĠHuman": 6271,
      "ĠNews": 6272,
      "ĠpÃºblica": 6273,
      "Ġprevenir": 6274,
      "Ġsmaller": 6275,
      "itz": 6276,
      "Ġnadie": 6277,
      "Ġaccep": 6278,
      "Ġlevant": 6279,
      "Ġunique": 6280,
      "Ġvot": 6281,
      "ĠCO": 6282,
      "ĠLA": 6283,
      "Ġrod": 6284,
      "Ġproto": 6285,
      "tesis": 6286,
      "Ġhelps": 6287,
      "istencia": 6288,
      "Ġembarazo": 6289,
      "ĠeconÃ³mica": 6290,
      "Ġnote": 6291,
      "Ġciudades": 6292,
      "III": 6293,
      "rees": 6294,
      "Ãºr": 6295,
      "ĠcomenzÃ³": 6296,
      "Ġestablish": 6297,
      "Hay": 6298,
      "Ġdigital": 6299,
      "aled": 6300,
      "Ġabsolu": 6301,
      "Ġconsequ": 6302,
      "Ġtrip": 6303,
      "Ġcool": 6304,
      "arte": 6305,
      "Ġgives": 6306,
      "Ġafirm": 6307,
      "Ġship": 6308,
      "Ġindica": 6309,
      "Ġpasa": 6310,
      "Ġfilos": 6311,
      "Ġenjo": 6312,
      "ellow": 6313,
      "ĠControl": 6314,
      "Ġpensar": 6315,
      "ĠChinese": 6316,
      "ulate": 6317,
      "Ġobjetivos": 6318,
      "ĠSir": 6319,
      "Ġrules": 6320,
      "ĠAlex": 6321,
      "ĠCath": 6322,
      "Ġderiv": 6323,
      "Ġlocation": 6324,
      "Ġmodels": 6325,
      "Ġaffected": 6326,
      "Ġbecomes": 6327,
      "ĠrÃ¡pidamente": 6328,
      "ĠPuede": 6329,
      "ĠDuring": 6330,
      "Ġtransl": 6331,
      "ĠEcon": 6332,
      "ĠBase": 6333,
      "Ġroom": 6334,
      "tism": 6335,
      "Ġaspectos": 6336,
      "enso": 6337,
      "Ġdoctr": 6338,
      "igen": 6339,
      "Cons": 6340,
      "Ġanything": 6341,
      "ĠCourt": 6342,
      "ections": 6343,
      "ource": 6344,
      "Ġbox": 6345,
      "Ġinfluen": 6346,
      "Ġrelatively": 6347,
      "ify": 6348,
      "Ġoppos": 6349,
      "house": 6350,
      "quÃŃ": 6351,
      "These": 6352,
      "Ġfair": 6353,
      "Ġprincipalmente": 6354,
      "Ãºcar": 6355,
      "ĠÃŃn": 6356,
      "tres": 6357,
      "ĠBal": 6358,
      "Ġsupervis": 6359,
      "Ġpercep": 6360,
      "Ġvivir": 6361,
      "Ġlucha": 6362,
      "Ġcitizens": 6363,
      "ini": 6364,
      "Ġreduced": 6365,
      "CC": 6366,
      "Ġestre": 6367,
      "Ġdepos": 6368,
      "Ġclases": 6369,
      "esa": 6370,
      "Ġboca": 6371,
      "Ġherram": 6372,
      "Ġdevice": 6373,
      "ĠversiÃ³n": 6374,
      "ĠAlso": 6375,
      "Ġfindings": 6376,
      "ĠDoc": 6377,
      "Ġhaz": 6378,
      "Ġspeed": 6379,
      "ĠeconÃ³mico": 6380,
      "SA": 6381,
      "Ġconsiste": 6382,
      "Algun": 6383,
      "Ġstaff": 6384,
      "Ġcogn": 6385,
      "Ġhun": 6386,
      "lectual": 6387,
      "Ġeyes": 6388,
      "uce": 6389,
      "icip": 6390,
      "phas": 6391,
      "Ġmovimientos": 6392,
      "Ġzonas": 6393,
      "Ph": 6394,
      "Ġhydro": 6395,
      "Ġseptiembre": 6396,
      "ĠGermany": 6397,
      "Ġfrag": 6398,
      "Ġrule": 6399,
      "ĠArgent": 6400,
      "Ġsn": 6401,
      "ĠSpeci": 6402,
      "Ġeditor": 6403,
      "Ġlanz": 6404,
      "Ġdegree": 6405,
      "Ġestrel": 6406,
      "Ġprofessional": 6407,
      "NU": 6408,
      "ĠMr": 6409,
      "iage": 6410,
      "Ġjugadores": 6411,
      "Ġsymbol": 6412,
      "Sh": 6413,
      "Ġsolid": 6414,
      "ĠElec": 6415,
      "ĠcampaÃ±a": 6416,
      "Ġinvest": 6417,
      "Ġjusticia": 6418,
      "Ġbenefit": 6419,
      "mod": 6420,
      "Ġseres": 6421,
      "].": 6422,
      "asta": 6423,
      "iembre": 6424,
      "New": 6425,
      "ĠSub": 6426,
      "ĠNorte": 6427,
      "iÃ±": 6428,
      "Ġquiz": 6429,
      "ileg": 6430,
      "Ġrend": 6431,
      "Ġexpans": 6432,
      "Ġbom": 6433,
      "Ġjulio": 6434,
      "Ġfuego": 6435,
      "IM": 6436,
      "Ġsuccessful": 6437,
      "ĠLord": 6438,
      "Ġrar": 6439,
      "Ġapplications": 6440,
      "ĠScot": 6441,
      "Ġfit": 6442,
      "Ġprobablemente": 6443,
      "Ġtel": 6444,
      "Ġcompl": 6445,
      "Ġinten": 6446,
      "Ġsuff": 6447,
      "estar": 6448,
      "ĠproteÃŃn": 6449,
      "metros": 6450,
      "ografÃŃa": 6451,
      "ĠserÃ¡n": 6452,
      "Ġequilibr": 6453,
      "Ġadquir": 6454,
      "ĠFrancia": 6455,
      "unal": 6456,
      "paign": 6457,
      "Ġabril": 6458,
      "Ġclaro": 6459,
      "Ġaprendizaje": 6460,
      "Ġdescar": 6461,
      "olucion": 6462,
      "Ġestablecer": 6463,
      "Ġmeasures": 6464,
      "imonio": 6465,
      "Ġton": 6466,
      "ĠDurante": 6467,
      "Ġciertos": 6468,
      "ĠFoundation": 6469,
      "Ġrecommend": 6470,
      "Ġproviding": 6471,
      "Ġteaching": 6472,
      "osto": 6473,
      "Ġprofesional": 6474,
      "icionales": 6475,
      "aste": 6476,
      "Ġmasa": 6477,
      "Ġthinking": 6478,
      "Ġconseguir": 6479,
      "orial": 6480,
      "acidad": 6481,
      "Rec": 6482,
      "Ġbelief": 6483,
      "Ġcod": 6484,
      "ĠBecause": 6485,
      "Ġapplied": 6486,
      "OC": 6487,
      "Ġregions": 6488,
      "unicip": 6489,
      "Ġmarzo": 6490,
      "Ġaparece": 6491,
      "Ġfriends": 6492,
      "well": 6493,
      "uebl": 6494,
      "Ġcapaz": 6495,
      "Ġthousands": 6496,
      "ĠMexico": 6497,
      "ĠadministraciÃ³n": 6498,
      "fortun": 6499,
      "ipe": 6500,
      "Ġvic": 6501,
      "ĠHa": 6502,
      "Ġinsul": 6503,
      "Ġcompletamente": 6504,
      "Ġfinancial": 6505,
      "Ġlaunch": 6506,
      "uros": 6507,
      "ĠSou": 6508,
      "ellig": 6509,
      "EP": 6510,
      "Ġvenezol": 6511,
      "ĠJews": 6512,
      "ĠcardÃŃ": 6513,
      "Ġocean": 6514,
      "lea": 6515,
      "ĠpequeÃ±as": 6516,
      "ĠfenÃ³m": 6517,
      "Ġidi": 6518,
      "Ġtowards": 6519,
      "Ġurban": 6520,
      "Ġhoriz": 6521,
      "Ġlibros": 6522,
      "Ġmajority": 6523,
      ".|": 6524,
      "icia": 6525,
      "Ġafir": 6526,
      "Ġshowed": 6527,
      "Ġtypically": 6528,
      "Ġdorm": 6529,
      "ĠInt": 6530,
      "ĠEr": 6531,
      "Ġvisto": 6532,
      "Ġrequer": 6533,
      "Ġaquel": 6534,
      "Ġjunio": 6535,
      "Ġ#": 6536,
      "Ġcomprom": 6537,
      "wards": 6538,
      "icago": 6539,
      "ĠSpanish": 6540,
      "Ġnegative": 6541,
      "Ġmayo": 6542,
      "BC": 6543,
      "Ġlun": 6544,
      "ĠEgy": 6545,
      "Ġviolencia": 6546,
      "tan": 6547,
      "take": 6548,
      "ĠLabor": 6549,
      "Ġminor": 6550,
      "Ġconoce": 6551,
      "ĠaÃ±ad": 6552,
      "Ġbomb": 6553,
      "Ġdistance": 6554,
      "trÃ³": 6555,
      "mania": 6556,
      "titut": 6557,
      "Ġger": 6558,
      "ĠWestern": 6559,
      "Ġviaj": 6560,
      "tid": 6561,
      "Ġarro": 6562,
      "Ġsurvey": 6563,
      "ĠtÃ©cnica": 6564,
      "ĠChile": 6565,
      "iance": 6566,
      "ĠIslam": 6567,
      "Ġgaranti": 6568,
      "Ġoffice": 6569,
      "ĠDise": 6570,
      "ĠsueÃ±o": 6571,
      "Ġtoler": 6572,
      "Ġretir": 6573,
      "Ã©ticos": 6574,
      "Ġorganizaciones": 6575,
      "Ġfum": 6576,
      "adura": 6577,
      "ience": 6578,
      "Ġradiation": 6579,
      "ole": 6580,
      "Ġje": 6581,
      "grad": 6582,
      "ĠCamb": 6583,
      "Ġaprop": 6584,
      "Ġdistintos": 6585,
      "ĠmÃ©todos": 6586,
      "prend": 6587,
      "ĠKen": 6588,
      "ĠService": 6589,
      "Ġphotograph": 6590,
      "Ġsurgery": 6591,
      "Ġeverything": 6592,
      "Ġillness": 6593,
      "Ġremember": 6594,
      "Ġbran": 6595,
      "Ãºsqu": 6596,
      "ĠvisiÃ³n": 6597,
      "ĠmÃ¡qu": 6598,
      "Ġequipment": 6599,
      "Ġapproximately": 6600,
      "untos": 6601,
      "Ġcontrato": 6602,
      "CO": 6603,
      "ĠEven": 6604,
      "ĠdaÃ±o": 6605,
      "raw": 6606,
      "alizado": 6607,
      "Ġpassed": 6608,
      "Ġposibles": 6609,
      "Ġobserved": 6610,
      "ĠazÃºcar": 6611,
      "ĠWater": 6612,
      "Ġdevices": 6613,
      "Ã©f": 6614,
      "Ġopportunity": 6615,
      "http": 6616,
      "ardo": 6617,
      "ĠOl": 6618,
      "Ġtreated": 6619,
      "Ġbil": 6620,
      "Ġcoming": 6621,
      "wood": 6622,
      "ĠAccording": 6623,
      "Ġdidn": 6624,
      "iculture": 6625,
      "Ġcities": 6626,
      "ologists": 6627,
      "Ġcircu": 6628,
      "ĠlÃŃquido": 6629,
      "Ġhogar": 6630,
      "Ġtissue": 6631,
      "'ve": 6632,
      "Ġpurch": 6633,
      "Ġepisod": 6634,
      "ĠAgr": 6635,
      "Ġmateriales": 6636,
      "mite": 6637,
      "ĠNow": 6638,
      "agement": 6639,
      "ĠÃīl": 6640,
      "ĠpelÃŃcula": 6641,
      "Ġful": 6642,
      "Ġsuelo": 6643,
      "Ġreco": 6644,
      "ĠIsland": 6645,
      "Ġseparate": 6646,
      "loc": 6647,
      "ĠMu": 6648,
      "load": 6649,
      "Ġresulta": 6650,
      "ĠSince": 6651,
      "Ġwatch": 6652,
      "Ġtrying": 6653,
      "Ġnuestras": 6654,
      "Ġadultos": 6655,
      "Ġfemale": 6656,
      "Ġsen": 6657,
      "Ġdrop": 6658,
      "ĠUs": 6659,
      "Ġrefiere": 6660,
      "ĠPaci": 6661,
      "Ġexamples": 6662,
      "Ġanaly": 6663,
      "Ġmensaje": 6664,
      "ession": 6665,
      "coun": 6666,
      "Ġexisting": 6667,
      "mitted": 6668,
      "Ġbelieved": 6669,
      "Ġcolle": 6670,
      "Ġestrateg": 6671,
      "ĠCharles": 6672,
      "Ġillustr": 6673,
      "Ġce": 6674,
      "tran": 6675,
      "ĠmÃºsculos": 6676,
      "Ġacab": 6677,
      "ĠGob": 6678,
      "Ġroad": 6679,
      "Be": 6680,
      "wa": 6681,
      "Ġgoes": 6682,
      "Ġgraph": 6683,
      "Ã³vil": 6684,
      "ĠHab": 6685,
      "Ġoptim": 6686,
      "ded": 6687,
      "ĠÐ": 6688,
      "ĠMass": 6689,
      "Ġcompletely": 6690,
      "igure": 6691,
      "ibly": 6692,
      "Ġdistribution": 6693,
      "Ġequal": 6694,
      "Ġenero": 6695,
      "fera": 6696,
      "tismo": 6697,
      "Ġnaturales": 6698,
      "iat": 6699,
      "Ġbound": 6700,
      "Ġdespl": 6701,
      "Ġbusc": 6702,
      "Ġreferencia": 6703,
      "ulated": 6704,
      "Ġoro": 6705,
      "Ġjugar": 6706,
      "enciales": 6707,
      "cipar": 6708,
      "Ġstream": 6709,
      "Ġblue": 6710,
      "Ġworked": 6711,
      "Ġsost": 6712,
      "Ġincom": 6713,
      "Ġestados": 6714,
      "Ġdrama": 6715,
      "Ġtalk": 6716,
      "Ġmatem": 6717,
      "Ġescl": 6718,
      "Ġscale": 6719,
      "oro": 6720,
      "Ã¡nico": 6721,
      "Ġsolution": 6722,
      "Ġprecio": 6723,
      "ev": 6724,
      "Ġcustom": 6725,
      "rew": 6726,
      "ĠLear": 6727,
      "Ġacum": 6728,
      "bu": 6729,
      "heim": 6730,
      "Ġregional": 6731,
      "Ġhistorical": 6732,
      "Ġestimated": 6733,
      "Ġgast": 6734,
      "ĠBat": 6735,
      "ĠThus": 6736,
      "Ġpeti": 6737,
      "Ġnecesitan": 6738,
      "Ġfilm": 6739,
      "Ġconcept": 6740,
      "Ġcoin": 6741,
      "Ġod": 6742,
      "Ġleave": 6743,
      "Ġconducta": 6744,
      "ĠcÃ¡l": 6745,
      "Ġescrito": 6746,
      "Seg": 6747,
      "With": 6748,
      "Ġpene": 6749,
      "Ġreasons": 6750,
      "Ġeating": 6751,
      "ĠDistr": 6752,
      "Ġoctubre": 6753,
      "ĠGoogle": 6754,
      "acted": 6755,
      "Ġdiciembre": 6756,
      "Ġsou": 6757,
      "Ġtemas": 6758,
      "enezuela": 6759,
      "Ġoral": 6760,
      "pert": 6761,
      "Ġinforme": 6762,
      "ĠMark": 6763,
      "Ġautoridad": 6764,
      "ĠtÃŃtulo": 6765,
      "Ġmale": 6766,
      "Ġsugar": 6767,
      "ĠMac": 6768,
      "Ġliqu": 6769,
      "Ġmechanism": 6770,
      "aint": 6771,
      "active": 6772,
      "Ġsurpr": 6773,
      "Ġindependent": 6774,
      "titude": 6775,
      "Ġstage": 6776,
      "Ġconstant": 6777,
      "izado": 6778,
      "Ġdemanda": 6779,
      "Ġfamilias": 6780,
      "Ġpowerful": 6781,
      "Ġswe": 6782,
      "Ġescol": 6783,
      "igned": 6784,
      "Ġpolici": 6785,
      "Ġadelante": 6786,
      "pir": 6787,
      "Ġheavy": 6788,
      "Ġseven": 6789,
      "ĠGlo": 6790,
      "netic": 6791,
      "Ġdiagnosis": 6792,
      "Ġvehic": 6793,
      "umin": 6794,
      "illos": 6795,
      "ĠFrank": 6796,
      "Ġleer": 6797,
      "Ġpopulations": 6798,
      "ĠJerusal": 6799,
      "Ġsuelen": 6800,
      "prim": 6801,
      "Ġfunctions": 6802,
      "ĠThomas": 6803,
      "Ġcuyo": 6804,
      "Ġalcanzar": 6805,
      "aling": 6806,
      "ĠCommission": 6807,
      "Ġdifferences": 6808,
      "related": 6809,
      "Ġflujo": 6810,
      "ri": 6811,
      "Ġchurch": 6812,
      "Ġincreases": 6813,
      "viÃ³": 6814,
      "ĠtÃ©cnicas": 6815,
      "ÃĵN": 6816,
      "gle": 6817,
      "Ġcourt": 6818,
      "gins": 6819,
      "ĠThen": 6820,
      "Ġreleased": 6821,
      "ĠDevelopment": 6822,
      "ĠJesus": 6823,
      "Ġconfirm": 6824,
      "Ġtir": 6825,
      "change": 6826,
      "ifer": 6827,
      "Ġmucha": 6828,
      "Ġupper": 6829,
      "Ġvulner": 6830,
      "Ġchanged": 6831,
      "west": 6832,
      "Ġexterior": 6833,
      "Ġframe": 6834,
      "Ġinteresting": 6835,
      "Ġeight": 6836,
      "Ġba": 6837,
      "ĠMos": 6838,
      "Ã³gica": 6839,
      "Ġconfigur": 6840,
      "rez": 6841,
      "Ġconvier": 6842,
      "Ġinn": 6843,
      "Ġutilizan": 6844,
      "Ġcast": 6845,
      "idr": 6846,
      "Ġplans": 6847,
      "iodo": 6848,
      "Ġcuya": 6849,
      "Ġdesempe": 6850,
      "ĠDef": 6851,
      "Ġcompleta": 6852,
      "ĠtÃº": 6853,
      "ĠJose": 6854,
      "Ġcommonly": 6855,
      "Ġfertil": 6856,
      "ĠObama": 6857,
      "Ġvoz": 6858,
      "Ġfresh": 6859,
      "Ġetapa": 6860,
      "Ġparty": 6861,
      "Ġpersons": 6862,
      "ĠSun": 6863,
      "ibrary": 6864,
      "ibuy": 6865,
      "ingo": 6866,
      "ĠvÃŃa": 6867,
      "Ġcook": 6868,
      "Ġsituaciones": 6869,
      "misiÃ³n": 6870,
      "Ġdemocr": 6871,
      "ĠLouis": 6872,
      "ĠTest": 6873,
      "ĠRad": 6874,
      "Ġmenores": 6875,
      "Ġmoving": 6876,
      "Ġpronto": 6877,
      "Ġgraves": 6878,
      "IDS": 6879,
      "Ġdisorders": 6880,
      "curso": 6881,
      "Ġautoridades": 6882,
      "'ll": 6883,
      "ificio": 6884,
      "Ġclick": 6885,
      "Ġargument": 6886,
      "Ġpicture": 6887,
      "vos": 6888,
      "Ġpant": 6889,
      "ĠEsp": 6890,
      "Ġshape": 6891,
      "Ġsalir": 6892,
      "Ġinspir": 6893,
      "Ġtool": 6894,
      "Ġnit": 6895,
      "Ġapare": 6896,
      "Ġsustancias": 6897,
      "Ġsuggests": 6898,
      "with": 6899,
      "atamente": 6900,
      "Ġcausas": 6901,
      "Ġcreating": 6902,
      "Ġpulm": 6903,
      "ĠbÃºsqu": 6904,
      "Ġdispar": 6905,
      "Ġclic": 6906,
      "mb": 6907,
      "ava": 6908,
      "alt": 6909,
      "ĠFue": 6910,
      "Ġexplos": 6911,
      "Ġnoviembre": 6912,
      "Ġenh": 6913,
      "Ġcoal": 6914,
      "ĠRus": 6915,
      "Ġpresence": 6916,
      "ĠChicago": 6917,
      "ĠsecciÃ³n": 6918,
      "ĠConse": 6919,
      "Ġrelacionados": 6920,
      "Ġciertas": 6921,
      "Ġviaje": 6922,
      "Ġpatterns": 6923,
      "ĠFam": 6924,
      "Ġclinical": 6925,
      "Ġpromedio": 6926,
      "iedades": 6927,
      "Ġmuscular": 6928,
      "Ġproteger": 6929,
      "ĠPeople": 6930,
      "ulte": 6931,
      "Ġnumeros": 6932,
      "ĠImper": 6933,
      "iology": 6934,
      "Ġsoy": 6935,
      "Par": 6936,
      "ĠWall": 6937,
      "Ġmemoria": 6938,
      "Ġpresident": 6939,
      "Ġofrece": 6940,
      "ĠJusti": 6941,
      "ĠPhys": 6942,
      "ĠSupre": 6943,
      "Ġdebajo": 6944,
      "Ġprimeras": 6945,
      "Ġcuestion": 6946,
      "Ġweak": 6947,
      "ĠmaÃ±": 6948,
      "Ġtejido": 6949,
      "Ġotor": 6950,
      "Ġexped": 6951,
      "ĠMat": 6952,
      "Ġdefined": 6953,
      "Ġganar": 6954,
      "Ġdrogas": 6955,
      "Ġconsiderable": 6956,
      "ĠLeg": 6957,
      "Ġdiversos": 6958,
      "ĠEmp": 6959,
      "Ġjuicio": 6960,
      "Ġrech": 6961,
      "Ġemphas": 6962,
      "ĠexpresiÃ³n": 6963,
      "Ġspring": 6964,
      "Ġdirection": 6965,
      "All": 6966,
      "Ġinfecciones": 6967,
      "ĠVe": 6968,
      "Ġquanti": 6969,
      "ĠSovi": 6970,
      "ueblos": 6971,
      "Ġâ": 6972,
      "Ġcapacity": 6973,
      "entas": 6974,
      "Ġball": 6975,
      "Ġguer": 6976,
      "Ġwhom": 6977,
      "Ġslight": 6978,
      "Ġattemp": 6979,
      "Ġpocos": 6980,
      "ĠMichael": 6981,
      "ĠPad": 6982,
      "Ġpresented": 6983,
      "ĠCongres": 6984,
      "Ġsud": 6985,
      "ĠDirector": 6986,
      "Ġneutr": 6987,
      "Cl": 6988,
      "Car": 6989,
      "atab": 6990,
      "omic": 6991,
      "Ġgolpe": 6992,
      "Ġsuggest": 6993,
      "Ġmouth": 6994,
      "Ġupd": 6995,
      "Ġcomplement": 6996,
      "Ġdistancia": 6997,
      "Ġreference": 6998,
      "Ġocasiones": 6999,
      "ĠacompaÃ±": 7000,
      "olas": 7001,
      "Ġfigure": 7002,
      "ett": 7003,
      "Ġperten": 7004,
      "Ġjournal": 7005,
      "Ġcara": 7006,
      "Ġrecords": 7007,
      "Ġchance": 7008,
      "Ġdefensa": 7009,
      "Ġpractices": 7010,
      "Ġkilled": 7011,
      "Ġhighest": 7012,
      "ĠVenezuela": 7013,
      "Ġmedicine": 7014,
      "xima": 7015,
      "Ġecos": 7016,
      "ĠEntre": 7017,
      "Ġfines": 7018,
      "Ġnorthern": 7019,
      "Ġpobre": 7020,
      "uj": 7021,
      "istics": 7022,
      "ieve": 7023,
      "ĠcrÃ©d": 7024,
      "Ġmoment": 7025,
      "Ġocho": 7026,
      "Ġenz": 7027,
      "ively": 7028,
      "Ġtrack": 7029,
      "Ġmoved": 7030,
      "Ġdebate": 7031,
      "ĠcompaÃ±ÃŃa": 7032,
      "Is": 7033,
      "Ġprecios": 7034,
      "Ġcommunication": 7035,
      "izes": 7036,
      "ĠTheir": 7037,
      "Ġarriba": 7038,
      "ientas": 7039,
      "ĠcientÃŃficos": 7040,
      "Ġbone": 7041,
      "Ġnative": 7042,
      "Ġestamos": 7043,
      "TambiÃ©n": 7044,
      "Ġpago": 7045,
      "Ġsuces": 7046,
      "Ġenvi": 7047,
      "cionar": 7048,
      "Ġsouthern": 7049,
      "Ġcree": 7050,
      "abilities": 7051,
      "Ġcommercial": 7052,
      "ĠIra": 7053,
      "ĠHere": 7054,
      "ĠartÃŃculos": 7055,
      "ĠEach": 7056,
      "Ġconsigu": 7057,
      "ĠCa": 7058,
      "Ã©gimen": 7059,
      "Ġcooper": 7060,
      "titudes": 7061,
      "Ġcumplir": 7062,
      "ker": 7063,
      "Ġstor": 7064,
      "ĠrÃ¡pido": 7065,
      "Ġasesin": 7066,
      "LA": 7067,
      "bes": 7068,
      "ĠAN": 7069,
      "point": 7070,
      "Ġsecundarios": 7071,
      "Ġasign": 7072,
      "Ġbases": 7073,
      "Ġtiempos": 7074,
      "While": 7075,
      "Ġbrit": 7076,
      "Ġeducational": 7077,
      "ĠAtlan": 7078,
      "Ġunit": 7079,
      "ords": 7080,
      "Ġagosto": 7081,
      "Ġprice": 7082,
      "Ġdisorder": 7083,
      "Ãºlti": 7084,
      "fy": 7085,
      "ĠrÃŃo": 7086,
      "Ġorganizations": 7087,
      "Ġdistintas": 7088,
      "Ġacept": 7089,
      "omo": 7090,
      "pol": 7091,
      "Ġnoted": 7092,
      "Ġmortal": 7093,
      "ĠPacific": 7094,
      "Ġfle": 7095,
      "Ġanno": 7096,
      "Ġdepende": 7097,
      "ĠChildren": 7098,
      "inter": 7099,
      "ĠtendrÃ¡": 7100,
      "Ġconducted": 7101,
      "Ġwest": 7102,
      "umer": 7103,
      "ogrÃ¡": 7104,
      "Ġuniversal": 7105,
      "ayo": 7106,
      "Ġstim": 7107,
      "tations": 7108,
      "Ġdiss": 7109,
      "Ġcentr": 7110,
      "ĠWhite": 7111,
      "Ġartifici": 7112,
      "Ġfields": 7113,
      "See": 7114,
      "into": 7115,
      "ady": 7116,
      "Ġsod": 7117,
      "Ġstorm": 7118,
      "ĠInv": 7119,
      "reh": 7120,
      "Ġfas": 7121,
      "Ġusers": 7122,
      "Ġplanning": 7123,
      "Ġpresentar": 7124,
      "bilidad": 7125,
      "Ġcarried": 7126,
      "ĠÃ³rganos": 7127,
      "ÃŃgeno": 7128,
      "DespuÃ©s": 7129,
      "Ġjuris": 7130,
      "Ġmathema": 7131,
      "Ġiglesia": 7132,
      "ĠRel": 7133,
      "ĠColomb": 7134,
      "Ġeventually": 7135,
      "thes": 7136,
      "Ġsuppl": 7137,
      "ĠPort": 7138,
      "angel": 7139,
      "ray": 7140,
      "zaron": 7141,
      "Ġhost": 7142,
      "ĠMem": 7143,
      "Ġpagar": 7144,
      "Ġgradu": 7145,
      "Ġemissions": 7146,
      "Â®": 7147,
      "Ġexci": 7148,
      "Ġmercur": 7149,
      "Ġinfluencia": 7150,
      "uter": 7151,
      "Ġimmediately": 7152,
      "Ġoccas": 7153,
      "ampoco": 7154,
      "Ġmente": 7155,
      "ĠHel": 7156,
      "timas": 7157,
      "Ġspeech": 7158,
      "Ġlif": 7159,
      "Ġproperties": 7160,
      "HE": 7161,
      "arqu": 7162,
      "agr": 7163,
      "Ġresource": 7164,
      "Ġplaneta": 7165,
      "atic": 7166,
      "Ġenorm": 7167,
      "Ġattach": 7168,
      "ĠpolicÃŃa": 7169,
      "ĠGobierno": 7170,
      "cÃ³": 7171,
      "ez": 7172,
      "ny": 7173,
      "Ġabog": 7174,
      "orea": 7175,
      "Ġaspir": 7176,
      "Ġprofessor": 7177,
      "ĠConstituciÃ³n": 7178,
      "Ġwaters": 7179,
      "Ġnecesit": 7180,
      "Ġmaxim": 7181,
      "Ġextranj": 7182,
      "Ġ>": 7183,
      "Ã³nde": 7184,
      "Ġrelease": 7185,
      "IX": 7186,
      "Ġoperations": 7187,
      "Ġindividuos": 7188,
      "ĠsÃ©": 7189,
      "ĠPod": 7190,
      "inch": 7191,
      "ciente": 7192,
      "Ġcuello": 7193,
      "Ġstructures": 7194,
      "tores": 7195,
      "lease": 7196,
      "Ġdocumentos": 7197,
      "CT": 7198,
      "tile": 7199,
      "rog": 7200,
      "Ġperiodo": 7201,
      "Ġdecades": 7202,
      "mir": 7203,
      "iff": 7204,
      "ĠFood": 7205,
      "Ġbueno": 7206,
      "Ġdiversas": 7207,
      "Ġrazones": 7208,
      "LE": 7209,
      "Ġcuadr": 7210,
      "Ġdiagnostic": 7211,
      "Ġappar": 7212,
      "Ġphen": 7213,
      "ĠparticipaciÃ³n": 7214,
      "Ġadopt": 7215,
      "Ġintroduced": 7216,
      "Ġprinciples": 7217,
      "cen": 7218,
      "ĠFl": 7219,
      "Ġkne": 7220,
      "mÃ¡n": 7221,
      "Ġuniform": 7222,
      "Ġpress": 7223,
      "Ġfaith": 7224,
      "ii": 7225,
      "Ġiny": 7226,
      "Ġbottom": 7227,
      "ĠOffice": 7228,
      "Ġeurope": 7229,
      "ĠInternacional": 7230,
      "ĠSpace": 7231,
      "gip": 7232,
      "Ġcuidad": 7233,
      "Ġfruit": 7234,
      "Ġrespect": 7235,
      "Ġdefine": 7236,
      "Ġdeud": 7237,
      "Ġnombr": 7238,
      "lad": 7239,
      "Ġemail": 7240,
      "Ġthin": 7241,
      "ĠRam": 7242,
      "Ġcomienza": 7243,
      "Ġoficial": 7244,
      "eler": 7245,
      "Ġvital": 7246,
      "Ġisn": 7247,
      "ĠDesde": 7248,
      "MS": 7249,
      "dice": 7250,
      "ĠcÃ³digo": 7251,
      "Ġacto": 7252,
      "Ġsigns": 7253,
      "ĠpropÃ³sito": 7254,
      "Ġchoice": 7255,
      "Ġfix": 7256,
      "Ġgiving": 7257,
      "meros": 7258,
      "Ġobstante": 7259,
      "umenta": 7260,
      "Ġclave": 7261,
      "Ġpartidos": 7262,
      "ĠColumb": 7263,
      "ĠArgentina": 7264,
      "Ġsustitu": 7265,
      "Ġspec": 7266,
      "Ġconfir": 7267,
      "Ġdescend": 7268,
      "Ġteacher": 7269,
      "ĠJeho": 7270,
      "Ġatac": 7271,
      "Ġrain": 7272,
      "cription": 7273,
      "Ġdepression": 7274,
      "ĠtecnologÃŃa": 7275,
      "ĠLuego": 7276,
      "Ġoverall": 7277,
      "ĠAcadem": 7278,
      "Med": 7279,
      "Ġgrant": 7280,
      "Ġdeterminado": 7281,
      "aran": 7282,
      "Ġintereses": 7283,
      "Ġmecan": 7284,
      "Ġreglas": 7285,
      "ĠopiniÃ³n": 7286,
      "Ġatmosphere": 7287,
      "Ġdistingu": 7288,
      "Ġinnov": 7289,
      "Ġremoved": 7290,
      "iant": 7291,
      "Ġ<": 7292,
      "Ġacadem": 7293,
      "kins": 7294,
      "Ġfigura": 7295,
      "essor": 7296,
      "press": 7297,
      "Ġproducen": 7298,
      "ĠHenry": 7299,
      "Ġfully": 7300,
      "ĠmaÃ±ana": 7301,
      "Ġrural": 7302,
      "Ġactions": 7303,
      "Ġejecut": 7304,
      "Ġrepeti": 7305,
      "ĠArmy": 7306,
      "Ġtouch": 7307,
      "idez": 7308,
      "Ġfreedom": 7309,
      "ĠJapanese": 7310,
      "rob": 7311,
      "ĠWil": 7312,
      "Ġpueblos": 7313,
      "anes": 7314,
      "Ġflood": 7315,
      "Ġdisp": 7316,
      "ĠSuper": 7317,
      "Ġdisponibles": 7318,
      "field": 7319,
      "ecÃŃa": 7320,
      "Ġcombination": 7321,
      "astern": 7322,
      "Ġinher": 7323,
      "Ġstories": 7324,
      "ĠOver": 7325,
      "Ġfrequently": 7326,
      "example": 7327,
      "vista": 7328,
      "Ġaun": 7329,
      "Ġaus": 7330,
      "romos": 7331,
      "oger": 7332,
      "Ġinvoluc": 7333,
      "ĠNet": 7334,
      "organ": 7335,
      "azar": 7336,
      "Ġterren": 7337,
      "inger": 7338,
      "oston": 7339,
      "Ġfunciona": 7340,
      "works": 7341,
      "Ġdeten": 7342,
      "Ġhos": 7343,
      "ĠPat": 7344,
      "Ġcontrast": 7345,
      "Ġreempl": 7346,
      "Ġlesiones": 7347,
      "Ġescribir": 7348,
      "oner": 7349,
      "leo": 7350,
      "ĠGer": 7351,
      "Ġinterc": 7352,
      "Ġriesgos": 7353,
      "Ġnave": 7354,
      "Ġorganismo": 7355,
      "ĠPerÃº": 7356,
      "iblio": 7357,
      "Ġpared": 7358,
      "ĠIll": 7359,
      "Ġfailure": 7360,
      "DF": 7361,
      "rÃ¡n": 7362,
      "Ġrul": 7363,
      "Ġdesapar": 7364,
      "Ġworth": 7365,
      "Ġamigo": 7366,
      "Ġanun": 7367,
      "Ġvoluntad": 7368,
      "Ġdiez": 7369,
      "ĠMinister": 7370,
      "ĠradiaciÃ³n": 7371,
      "ĠLuis": 7372,
      "Ġenl": 7373,
      "ĠRock": 7374,
      "Ġentend": 7375,
      "ĠComitÃ©": 7376,
      "tig": 7377,
      "itiva": 7378,
      "Ġtrig": 7379,
      "Ġresistance": 7380,
      "Ġarres": 7381,
      "Ġterr": 7382,
      "ĠDi": 7383,
      "Ġcampaign": 7384,
      "Ġenf": 7385,
      "Ã¡les": 7386,
      "Ġtradition": 7387,
      "oras": 7388,
      "Ġquar": 7389,
      "ĠdiseÃ±o": 7390,
      "Ġtrastorno": 7391,
      "Ġadver": 7392,
      "ĠcuÃ¡n": 7393,
      "They": 7394,
      "ĠallÃ¡": 7395,
      "Ġmilk": 7396,
      "Ġreligion": 7397,
      "Ġtempran": 7398,
      "ativo": 7399,
      "Ġaer": 7400,
      "Ġcarne": 7401,
      "ĠHy": 7402,
      "Ġprolong": 7403,
      "ilo": 7404,
      "Ġejer": 7405,
      "Ġencima": 7406,
      "ĠbÃºsqueda": 7407,
      "Ġincon": 7408,
      "Ġunits": 7409,
      "Ġmanip": 7410,
      "ĠComisiÃ³n": 7411,
      "oo": 7412,
      "Ġdetr": 7413,
      "Ġmys": 7414,
      "Ġpropos": 7415,
      "ĠcuestiÃ³n": 7416,
      "Ġbatalla": 7417,
      "cope": 7418,
      "Ġfriend": 7419,
      "Ġnumerous": 7420,
      "Ġpolicies": 7421,
      "Ġstem": 7422,
      "Ġrunning": 7423,
      "Ġdetails": 7424,
      "osos": 7425,
      "Ġiron": 7426,
      "ĠCarolina": 7427,
      "American": 7428,
      "Ġestat": 7429,
      "Ġturned": 7430,
      "Ġauthors": 7431,
      "Ġaspecto": 7432,
      "ĠPresidente": 7433,
      "After": 7434,
      "Ġcuad": 7435,
      "Ġclearly": 7436,
      "Ġsand": 7437,
      "Ġestoy": 7438,
      "Ġesfuerzo": 7439,
      "Ġinclu": 7440,
      "bras": 7441,
      "ofÃŃa": 7442,
      "Ġannual": 7443,
      "ferencia": 7444,
      "Ġparticipar": 7445,
      "Ġduda": 7446,
      "Ġpudo": 7447,
      "ography": 7448,
      "ĠGroup": 7449,
      "Ġcorriente": 7450,
      "ablo": 7451,
      "ĠMS": 7452,
      "ienen": 7453,
      "Ġfebrero": 7454,
      "Ã¡menes": 7455,
      "aza": 7456,
      "that": 7457,
      "ĠOur": 7458,
      "termin": 7459,
      "Ġopciones": 7460,
      "Ġpropag": 7461,
      "Ġsect": 7462,
      "ĠmÃºlti": 7463,
      "Ġeast": 7464,
      "ĠPas": 7465,
      "Ġforward": 7466,
      "Ġboard": 7467,
      "Ġtap": 7468,
      "urther": 7469,
      "Ġrout": 7470,
      "auti": 7471,
      "which": 7472,
      "Ġchoose": 7473,
      "Ġrig": 7474,
      "Ġrare": 7475,
      "Ġentrar": 7476,
      "Ġrestaur": 7477,
      "Ġamar": 7478,
      "Ġpropios": 7479,
      "Ġcualquiera": 7480,
      "Ġauthority": 7481,
      "ĠdÃ©cada": 7482,
      "Ġpages": 7483,
      "ygen": 7484,
      "Ġaid": 7485,
      "Ġfortal": 7486,
      "ĠCarlos": 7487,
      "hist": 7488,
      "Ġpied": 7489,
      "Ġvary": 7490,
      "ĠProject": 7491,
      "Ġvariables": 7492,
      "ĠreacciÃ³n": 7493,
      "tidos": 7494,
      "atar": 7495,
      "Ġcounter": 7496,
      "Ġofficials": 7497,
      "Ġasc": 7498,
      "uerto": 7499,
      "Ġtengo": 7500,
      "Ġcircunst": 7501,
      "Ġlived": 7502,
      "gency": 7503,
      "Ġsteps": 7504,
      "Ġinmediatamente": 7505,
      "Ġbusca": 7506,
      "Ġwrong": 7507,
      "Ġmeeting": 7508,
      "Ġvisible": 7509,
      "Durante": 7510,
      "Ġproposed": 7511,
      "Ġlibr": 7512,
      "Ġinstitutions": 7513,
      "Ġimplica": 7514,
      "Ġcore": 7515,
      "Ġvie": 7516,
      "andom": 7517,
      "ĠBaseball": 7518,
      "rich": 7519,
      "Ġfeature": 7520,
      "Ġautores": 7521,
      "ĠXX": 7522,
      "Ġinvestigadores": 7523,
      "Ġofficial": 7524,
      "Ġdial": 7525,
      "Ġmue": 7526,
      "Ġinfan": 7527,
      "Ġtercera": 7528,
      "adic": 7529,
      "Ġpuedo": 7530,
      "ĠAdd": 7531,
      "Ġrequis": 7532,
      "Ġnacimiento": 7533,
      "Ġcm": 7534,
      "Ġfondo": 7535,
      "Ġejempl": 7536,
      "Ġbuildings": 7537,
      "Ġqueda": 7538,
      "ĠBiblia": 7539,
      "Ġwear": 7540,
      "Ġpiece": 7541,
      "Ġextremely": 7542,
      "craft": 7543,
      "Ġhu": 7544,
      "Ġbud": 7545,
      "Ġdebil": 7546,
      "Ġmodific": 7547,
      "Ġvision": 7548,
      "bos": 7549,
      "lem": 7550,
      "iebre": 7551,
      "Ġpresentan": 7552,
      "ĠdeberÃ¡": 7553,
      "ĠestÃ¡s": 7554,
      "Ġhair": 7555,
      "Ġtemperatures": 7556,
      "Ġhospit": 7557,
      "Ġachieve": 7558,
      "ecciones": 7559,
      "ogen": 7560,
      "Ġindustria": 7561,
      "igan": 7562,
      "iciales": 7563,
      "cloped": 7564,
      "pap": 7565,
      "ources": 7566,
      "ĠexposiciÃ³n": 7567,
      "Ġcomenzar": 7568,
      "ĠAlemania": 7569,
      "Ġcontempor": 7570,
      "sta": 7571,
      "oll": 7572,
      "Ġroot": 7573,
      "rosoft": 7574,
      "ĠAnton": 7575,
      "ĠMuslim": 7576,
      "eta": 7577,
      "Ġinhib": 7578,
      "ĠrÃ©gimen": 7579,
      "Ġremained": 7580,
      "ativa": 7581,
      "Ġcant": 7582,
      "Ġvess": 7583,
      "Ġperder": 7584,
      "Ġchief": 7585,
      "Ġmiembro": 7586,
      "Ġplease": 7587,
      "Ġperformed": 7588,
      "Ġras": 7589,
      "Ġargu": 7590,
      "Ġembaraz": 7591,
      "Ġcovered": 7592,
      "ĠTy": 7593,
      "Ġpreced": 7594,
      "pair": 7595,
      "Ġreconoc": 7596,
      "ĠestÃ©n": 7597,
      "Ġkid": 7598,
      "Ġgun": 7599,
      "Ġsola": 7600,
      "Ġcircum": 7601,
      "ĠCompany": 7602,
      "ĠSegÃºn": 7603,
      "Ġintended": 7604,
      "idelines": 7605,
      "erta": 7606,
      "ĠRod": 7607,
      "Ġconservation": 7608,
      "ĠRichard": 7609,
      "Ã¶": 7610,
      "ĠAf": 7611,
      "Ġserve": 7612,
      "Ġdetermined": 7613,
      "Ġmessage": 7614,
      "Ġsong": 7615,
      "Ġuns": 7616,
      "ĠPop": 7617,
      "Ġrace": 7618,
      "Ġoffers": 7619,
      "Ġconcern": 7620,
      "Ġpow": 7621,
      "Ġmut": 7622,
      "ĠIV": 7623,
      "ĠArt": 7624,
      "Ġirr": 7625,
      "Ã¡mara": 7626,
      "Ġlengua": 7627,
      "Ġmismas": 7628,
      "Ġserved": 7629,
      "curs": 7630,
      "Ġelectricity": 7631,
      "Ġresistencia": 7632,
      "Ġvictoria": 7633,
      "ĠLibrary": 7634,
      "Ġstyle": 7635,
      "ells": 7636,
      "iversity": 7637,
      "Ġlocales": 7638,
      "Ġalternative": 7639,
      "BS": 7640,
      "ager": 7641,
      "ieza": 7642,
      "Ġrode": 7643,
      "yen": 7644,
      "Ġjugador": 7645,
      "Ġdiscussion": 7646,
      "Ġsav": 7647,
      "ĠTal": 7648,
      "Ġexcess": 7649,
      "Ġqual": 7650,
      "ĠahÃŃ": 7651,
      "Ġneur": 7652,
      "ynam": 7653,
      "Ġmilitares": 7654,
      "tida": 7655,
      "Te": 7656,
      "TA": 7657,
      "ĠopciÃ³n": 7658,
      "Ġllega": 7659,
      "Ġstatis": 7660,
      "Ġlearned": 7661,
      "Ġcompreh": 7662,
      "Ġclub": 7663,
      "Ġimmune": 7664,
      "Ġforced": 7665,
      "Ġcompound": 7666,
      "Ġpush": 7667,
      "seg": 7668,
      "via": 7669,
      "ĠUsted": 7670,
      "ajas": 7671,
      "pet": 7672,
      "erson": 7673,
      "uty": 7674,
      "ĠBan": 7675,
      "ĠJac": 7676,
      "Ġinstance": 7677,
      "Ġconfid": 7678,
      "Ġmembr": 7679,
      "Ġdegrees": 7680,
      "Ġmg": 7681,
      "ila": 7682,
      "Ġvesti": 7683,
      "ament": 7684,
      "ivamente": 7685,
      "Ġindividuo": 7686,
      "Ġhorizon": 7687,
      "oster": 7688,
      "dow": 7689,
      "Ġcomercio": 7690,
      "Ġlongitud": 7691,
      "nel": 7692,
      "Ġtier": 7693,
      "Ġhomes": 7694,
      "olÃ³gica": 7695,
      "Ġblanco": 7696,
      "Ġentrenamiento": 7697,
      "Ġcontext": 7698,
      "SegÃºn": 7699,
      "Ġgases": 7700,
      "Ġdisfr": 7701,
      "Ġcompens": 7702,
      "Ġirrit": 7703,
      "Ġrelative": 7704,
      "icy": 7705,
      "Ġround": 7706,
      "ĠmÃ¡ximo": 7707,
      "Ġarchitect": 7708,
      "Ġacqu": 7709,
      "Ġmicros": 7710,
      "Ġaliv": 7711,
      "ĠriÃ±": 7712,
      "Ġderecha": 7713,
      "HA": 7714,
      "Ġeffici": 7715,
      "ching": 7716,
      "Ġgrasa": 7717,
      "Ġespecie": 7718,
      "bano": 7719,
      "ov": 7720,
      "Ġdios": 7721,
      "isa": 7722,
      "ensus": 7723,
      "Ġbreath": 7724,
      "Ġtruth": 7725,
      "Ġdisponible": 7726,
      "Ġgust": 7727,
      "Ġreached": 7728,
      "CA": 7729,
      "eff": 7730,
      "Ġresulting": 7731,
      "Mar": 7732,
      "Ġconsiderar": 7733,
      "Ġestadounidense": 7734,
      "Ġbodies": 7735,
      "uits": 7736,
      "Ġfinales": 7737,
      "Ġincome": 7738,
      "Ġfoss": 7739,
      "ĠoxÃŃgeno": 7740,
      "eca": 7741,
      "Ġviene": 7742,
      "tock": 7743,
      "lution": 7744,
      "Ġshor": 7745,
      "eo": 7746,
      "Ġpartners": 7747,
      "Ġoperaciones": 7748,
      "ĠConsejo": 7749,
      "iada": 7750,
      "Ġeveryone": 7751,
      "ĠColombia": 7752,
      "Pued": 7753,
      "level": 7754,
      "Ġoccid": 7755,
      "?\"": 7756,
      "Ġespeciales": 7757,
      "Ġhit": 7758,
      "iller": 7759,
      "ĠStreet": 7760,
      "Ġplanes": 7761,
      "tio": 7762,
      "ĠBoston": 7763,
      "ĠGra": 7764,
      "stos": 7765,
      "Ġdomestic": 7766,
      "Ġultim": 7767,
      "ĠRos": 7768,
      "Ġvolume": 7769,
      "Ġnine": 7770,
      "Ġventa": 7771,
      "ched": 7772,
      "Ġempleados": 7773,
      "Ġopportunities": 7774,
      "Ġpick": 7775,
      "edores": 7776,
      "uestra": 7777,
      "itivos": 7778,
      "Ġdecisions": 7779,
      "cano": 7780,
      "Ġthr": 7781,
      "Ġcomprar": 7782,
      "Ġveter": 7783,
      ".).": 7784,
      "Ġrepro": 7785,
      "iday": 7786,
      "Ġ(\"": 7787,
      "ĠIts": 7788,
      "Ġabajo": 7789,
      "Ġconocida": 7790,
      "Ġconclud": 7791,
      "Ġgold": 7792,
      "Ġusando": 7793,
      "ĠestÃ¡nd": 7794,
      "ĠDemoc": 7795,
      "Ġax": 7796,
      "Ġchronic": 7797,
      "Ġoccurred": 7798,
      "Ġcomponents": 7799,
      "ĠEN": 7800,
      "Ġgeneration": 7801,
      "ĠSea": 7802,
      "Ġdibu": 7803,
      "Ġamerican": 7804,
      "ĠCancer": 7805,
      "Ġmetabol": 7806,
      "ju": 7807,
      "acio": 7808,
      "Ġconsumption": 7809,
      "Ġfinding": 7810,
      "Ġattempt": 7811,
      "ĠViet": 7812,
      "Ġletter": 7813,
      "Ġsend": 7814,
      "Ġhop": 7815,
      "Ġdrive": 7816,
      "Ġdecide": 7817,
      "Ġliterature": 7818,
      "Ġwidely": 7819,
      "Ġingen": 7820,
      "urales": 7821,
      "Ġprison": 7822,
      "ĠclÃ¡s": 7823,
      "Ġplantas": 7824,
      "anging": 7825,
      "Ġdefend": 7826,
      "ĠCada": 7827,
      "Ġgrab": 7828,
      "Ġgrass": 7829,
      "cap": 7830,
      "onos": 7831,
      "frica": 7832,
      "ionales": 7833,
      "Ġorganic": 7834,
      "ĠsÃŃndrome": 7835,
      "hes": 7836,
      "ĠMÃ¡s": 7837,
      "ĠCab": 7838,
      "graf": 7839,
      "ĠLife": 7840,
      "tory": 7841,
      "Ġpet": 7842,
      "igas": 7843,
      "Ġmarca": 7844,
      "Ġingresos": 7845,
      "IG": 7846,
      "ĠDepartamento": 7847,
      "Ġrid": 7848,
      "Ġrecono": 7849,
      "ĠBritain": 7850,
      "ĠquiÃ©n": 7851,
      "Ġstay": 7852,
      "Ġinfl": 7853,
      "Ġelemento": 7854,
      "Ġnations": 7855,
      "Ġsimpl": 7856,
      "Ġisol": 7857,
      "cripciÃ³n": 7858,
      "ographic": 7859,
      "ĠRem": 7860,
      "duction": 7861,
      "ficiencia": 7862,
      "Ġmonta": 7863,
      "Ġexpression": 7864,
      "Ġvariable": 7865,
      "ĠvÃ¡l": 7866,
      "Ãºt": 7867,
      "Ġfinalmente": 7868,
      "born": 7869,
      "ĠPatr": 7870,
      "ĠTimes": 7871,
      "burg": 7872,
      "Ġcycle": 7873,
      "ĠCongreso": 7874,
      "ĠCer": 7875,
      "agan": 7876,
      "Ġmetros": 7877,
      "ĠdistribuciÃ³n": 7878,
      "Ġpid": 7879,
      "lot": 7880,
      "Ġexpect": 7881,
      "Ġexistence": 7882,
      "Ġclasses": 7883,
      "From": 7884,
      "Ġexecu": 7885,
      "Ġnormalmente": 7886,
      "Ġlinks": 7887,
      "Ġdil": 7888,
      "aks": 7889,
      "Ġbattle": 7890,
      "Ġaltos": 7891,
      "Ġacre": 7892,
      "adel": 7893,
      "Ġbear": 7894,
      "Ġespera": 7895,
      "ĠÃ¡rbol": 7896,
      "quÃ©": 7897,
      "para": 7898,
      "Ġstrug": 7899,
      "Ġexposed": 7900,
      "Ġejercicios": 7901,
      "Ġtall": 7902,
      "alization": 7903,
      "abilidades": 7904,
      "Ġstation": 7905,
      "chas": 7906,
      "ĠRoy": 7907,
      "Ġcertific": 7908,
      "Ġsupuesto": 7909,
      "Ġorina": 7910,
      "Although": 7911,
      "ĠevaluaciÃ³n": 7912,
      "Ġtarea": 7913,
      "Ġcontrovers": 7914,
      "Ġfals": 7915,
      "ĠYo": 7916,
      "ughter": 7917,
      "Ġcapit": 7918,
      "Ġarticles": 7919,
      "Ġnota": 7920,
      "ĠComm": 7921,
      "Ġingred": 7922,
      "iminal": 7923,
      "izada": 7924,
      "Ġmachine": 7925,
      "aturas": 7926,
      "Ġreferred": 7927,
      "ivas": 7928,
      "ĠEnergy": 7929,
      "Ġtrabajos": 7930,
      "Ġprocedimientos": 7931,
      "ArtÃŃculo": 7932,
      "Ġespecies": 7933,
      "ĠTechnology": 7934,
      "erdo": 7935,
      "Ġcarga": 7936,
      "Ġafecta": 7937,
      "Ġfamous": 7938,
      "Ġrecommended": 7939,
      "Ġcav": 7940,
      "Ġproven": 7941,
      "Ġsiente": 7942,
      "Ġdiferencias": 7943,
      "allow": 7944,
      "Ġmunicip": 7945,
      "imismo": 7946,
      "Ġguide": 7947,
      "Ġizquierda": 7948,
      "Ġthick": 7949,
      "Ġsimilares": 7950,
      "Ġsquare": 7951,
      "poses": 7952,
      "quiera": 7953,
      "yal": 7954,
      "Ġlung": 7955,
      "Ġantic": 7956,
      "ĠEntonces": 7957,
      "Ġevidencia": 7958,
      "ING": 7959,
      "Ġanteriores": 7960,
      "Ġplata": 7961,
      "Ġsample": 7962,
      "Ġformar": 7963,
      "ĠKh": 7964,
      "ĠlÃŃneas": 7965,
      "Ġlayer": 7966,
      "bon": 7967,
      "ĠpÃ¡": 7968,
      "ĠnÃºcle": 7969,
      "Ġdicha": 7970,
      "Ġannoun": 7971,
      "IR": 7972,
      "ĠTw": 7973,
      "ĠFund": 7974,
      "Ġcreation": 7975,
      "care": 7976,
      "Ġexces": 7977,
      "Ġmuscle": 7978,
      "Ġconcl": 7979,
      "taciones": 7980,
      "ĠdaÃ±": 7981,
      "Ð°": 7982,
      "Ġintellig": 7983,
      "Ãºtbol": 7984,
      "Ġblog": 7985,
      "ĠPrin": 7986,
      "Ġalmacen": 7987,
      "Ġbecoming": 7988,
      "clopedia": 7989,
      "aped": 7990,
      "Ġhelped": 7991,
      "Ġbiological": 7992,
      "Aunque": 7993,
      "sen": 7994,
      "Ġwonder": 7995,
      "ĠpolÃŃticos": 7996,
      "Ġmostly": 7997,
      "Ġemplo": 7998,
      "sp": 7999,
      "Ġham": 8000,
      "Ġgather": 8001,
      "ĠPM": 8002,
      "ansas": 8003,
      "Ġcolabor": 8004,
      "Ġpoli": 8005,
      "Ġnecesaria": 8006,
      "ÃŃda": 8007,
      "Ġpref": 8008,
      "Ġpasos": 8009,
      "Ġoperation": 8010,
      "Ġfacult": 8011,
      "preci": 8012,
      "Ġcreo": 8013,
      "Ġdocumento": 8014,
      "Ġsignificado": 8015,
      "Ġstorage": 8016,
      "Can": 8017,
      "Ġconvention": 8018,
      "Ġreh": 8019,
      "Ġstore": 8020,
      "Ġuniverse": 8021,
      "ĠbebÃ©s": 8022,
      "ĠVis": 8023,
      "Ġinstituciones": 8024,
      "Ġeliminar": 8025,
      "Ġembr": 8026,
      "Ġadolescentes": 8027,
      "Ġconciencia": 8028,
      "Ġpecho": 8029,
      "ding": 8030,
      "ĠAS": 8031,
      "Ġsecret": 8032,
      "Ġinternacionales": 8033,
      "Ġaprov": 8034,
      "Ġwal": 8035,
      "ÃŃz": 8036,
      "ĠMont": 8037,
      "Ġsacerdo": 8038,
      "Ġinicio": 8039,
      "ĠMiddle": 8040,
      "thesis": 8041,
      "Ġgenerales": 8042,
      "HO": 8043,
      "hi": 8044,
      "ĠZe": 8045,
      "vascular": 8046,
      "Ġrefr": 8047,
      "imas": 8048,
      "ĠOx": 8049,
      "Ġagreg": 8050,
      "ismos": 8051,
      "Ġprocedure": 8052,
      "Ġwanted": 8053,
      "Ġisland": 8054,
      "Ġitems": 8055,
      "Ġrisks": 8056,
      "Ġstarting": 8057,
      "Ġconnection": 8058,
      "gers": 8059,
      "Ġbos": 8060,
      "Ġgoals": 8061,
      "Ġdefens": 8062,
      "curr": 8063,
      "Ġadvanced": 8064,
      "Ġofic": 8065,
      "teor": 8066,
      "ĠKar": 8067,
      "Dr": 8068,
      "jan": 8069,
      "Ġvio": 8070,
      "Ġexh": 8071,
      "enew": 8072,
      "Ġcausing": 8073,
      "Ġbelong": 8074,
      "Ġarterial": 8075,
      "Ġdeja": 8076,
      "Ġobes": 8077,
      "ains": 8078,
      "Ġescrit": 8079,
      "Ġreturned": 8080,
      "ault": 8081,
      "vol": 8082,
      "Ġsnow": 8083,
      "Ġinitial": 8084,
      "istan": 8085,
      "ÃŃstico": 8086,
      "Ġhered": 8087,
      "That": 8088,
      "Ġconstruir": 8089,
      "ĠLake": 8090,
      "ĠAllah": 8091,
      "ĠDerecho": 8092,
      "Ġstrategies": 8093,
      "Ġarmy": 8094,
      "Ġstatement": 8095,
      "Ġinstrucciones": 8096,
      "Ġrequirements": 8097,
      "Ġtiro": 8098,
      "ĠWork": 8099,
      "Ġcoron": 8100,
      "Ġrecibe": 8101,
      "Ġsignificantly": 8102,
      "Ġviolence": 8103,
      "Ġdecided": 8104,
      "Ġgalax": 8105,
      "\")": 8106,
      "ĠBa": 8107,
      "Ġabor": 8108,
      "Ġkept": 8109,
      "Ġaspects": 8110,
      "ĠJoseph": 8111,
      "Ġhuge": 8112,
      "Ġpreviously": 8113,
      "Ġsupported": 8114,
      "Ã³geno": 8115,
      "%)": 8116,
      "lict": 8117,
      "Ġadvantage": 8118,
      "ĠStand": 8119,
      "Ġtengan": 8120,
      "Ġnorma": 8121,
      "Ġtour": 8122,
      "Ġchemicals": 8123,
      "uthor": 8124,
      "ĠrecibiÃ³": 8125,
      "ĠPedro": 8126,
      "Ġdepor": 8127,
      "yos": 8128,
      "ĠSpr": 8129,
      "ioterapia": 8130,
      "Ġelectro": 8131,
      "Ġtask": 8132,
      "Ġtotalmente": 8133,
      "echas": 8134,
      "Ġfamiliares": 8135,
      "Ã³b": 8136,
      "Ġpropias": 8137,
      "ectives": 8138,
      "Ġimped": 8139,
      "mp": 8140,
      "amas": 8141,
      "ĠGreek": 8142,
      "Ġwealth": 8143,
      "Ġanyone": 8144,
      "ĠreligiÃ³n": 8145,
      "Ġwestern": 8146,
      "ought": 8147,
      "Ġclassroom": 8148,
      "Ġhabitat": 8149,
      "Ġepid": 8150,
      "jeron": 8151,
      "Ġambas": 8152,
      "Ġlinf": 8153,
      "Ġassessment": 8154,
      "Ġtropas": 8155,
      "Ġresolver": 8156,
      "Ġmied": 8157,
      "Ġdefinition": 8158,
      "Do": 8159,
      "Ġoxygen": 8160,
      "Ġstars": 8161,
      "ariamente": 8162,
      "itado": 8163,
      "ache": 8164,
      "Ġtechnologies": 8165,
      "body": 8166,
      "ĠMen": 8167,
      "Ġutilizado": 8168,
      "Ġbloque": 8169,
      "Ġchanging": 8170,
      "OD": 8171,
      "Ġapre": 8172,
      "ĠAnn": 8173,
      "Esto": 8174,
      "Ġaltura": 8175,
      "Ġyourself": 8176,
      "iencias": 8177,
      "zada": 8178,
      "ĠperiÃ³": 8179,
      "Ġagres": 8180,
      "Ġassem": 8181,
      "CD": 8182,
      "gÃ³": 8183,
      "Ġcomment": 8184,
      "ĠBlo": 8185,
      "Ġemergency": 8186,
      "ĠtelÃ©f": 8187,
      "arla": 8188,
      "Ġalg": 8189,
      "Ġjard": 8190,
      "ĠÂ©": 8191,
      "Ã³logo": 8192,
      "ĠTrib": 8193,
      "what": 8194,
      "Ã¡neo": 8195,
      "AdemÃ¡s": 8196,
      "ĠAlgunas": 8197,
      "Ġben": 8198,
      "ratic": 8199,
      "Ġconce": 8200,
      "agues": 8201,
      "Ġcanal": 8202,
      "Ġcorreo": 8203,
      "Ġpeligro": 8204,
      "acos": 8205,
      "verty": 8206,
      "Ġbrief": 8207,
      "ĠSecret": 8208,
      "ĠgÃ©n": 8209,
      "ĠWik": 8210,
      "Ġrecuer": 8211,
      "ĠÃºtil": 8212,
      "Ġhermano": 8213,
      "onÃŃa": 8214,
      "emas": 8215,
      "ĠLet": 8216,
      "Ġremove": 8217,
      "Ġcuarto": 8218,
      "ĠsÃ³l": 8219,
      "Ġetern": 8220,
      "Ġcubr": 8221,
      "Ġglass": 8222,
      "Ġamounts": 8223,
      "ÃŃficas": 8224,
      "urg": 8225,
      "Ġpermiten": 8226,
      "ĠMel": 8227,
      "ĠRome": 8228,
      "ĠEnvironmental": 8229,
      "Ġau": 8230,
      "Ġamen": 8231,
      "itaria": 8232,
      "Much": 8233,
      "anÃŃa": 8234,
      "ĠRob": 8235,
      "Ġsave": 8236,
      "Ġdign": 8237,
      "allas": 8238,
      "Ġgall": 8239,
      "Ġfuertes": 8240,
      "Ġcosto": 8241,
      "Ġengineering": 8242,
      "isla": 8243,
      "ĠConfeder": 8244,
      "aden": 8245,
      "Ġisla": 8246,
      "ĠExpl": 8247,
      "Ġvaccine": 8248,
      "Ġhicieron": 8249,
      "Ãī": 8250,
      "ĠPost": 8251,
      "ette": 8252,
      "ĠBudd": 8253,
      "Ġfuncionamiento": 8254,
      "Ġimpuestos": 8255,
      "Ġconflicto": 8256,
      "ĠtelevisiÃ³n": 8257,
      "wers": 8258,
      "ĠFil": 8259,
      "Ġvariedad": 8260,
      "Ġaleman": 8261,
      "Ġcharacteristics": 8262,
      "Ġprices": 8263,
      "Ġnotes": 8264,
      "Ġcontexto": 8265,
      "ĠSum": 8266,
      "Ġfrances": 8267,
      "ĠCentro": 8268,
      "Ġinstall": 8269,
      "right": 8270,
      "ĠOh": 8271,
      "ĠOld": 8272,
      "Ġinfin": 8273,
      "atorios": 8274,
      "Ġsettle": 8275,
      "Ġpeligros": 8276,
      "Ġarchivos": 8277,
      "Ġsitios": 8278,
      "tagon": 8279,
      "Ġmotion": 8280,
      "Ġtraff": 8281,
      "Ġaguas": 8282,
      "ĠlesiÃ³n": 8283,
      "Ġcierta": 8284,
      "mites": 8285,
      "Ġreti": 8286,
      "Ġweap": 8287,
      "Ġcharge": 8288,
      "ĠTodos": 8289,
      "Ġsho": 8290,
      "Ġactualidad": 8291,
      "teced": 8292,
      "emic": 8293,
      "Ġaccept": 8294,
      "ĠStar": 8295,
      "Ġcombined": 8296,
      "Ġhappen": 8297,
      "atabase": 8298,
      "rap": 8299,
      "Ġimpacto": 8300,
      "Ġov": 8301,
      "ĠexÃ¡menes": 8302,
      "Ġarqu": 8303,
      "Ġindicate": 8304,
      "Ġtareas": 8305,
      "Ġchallenges": 8306,
      "Ġtratamientos": 8307,
      "Ġextent": 8308,
      "Ġabstr": 8309,
      "ĠSecond": 8310,
      "ĠÃ¡ng": 8311,
      "ĠRights": 8312,
      "iesta": 8313,
      "Per": 8314,
      "Ġexcel": 8315,
      "Ġposibil": 8316,
      "Ġpoly": 8317,
      "rasil": 8318,
      "ĠMartin": 8319,
      "Ġhubiera": 8320,
      "Ġinmigr": 8321,
      "ĠSil": 8322,
      "Ġcantidades": 8323,
      "Ġbond": 8324,
      "omy": 8325,
      "Ġusan": 8326,
      "Ġvein": 8327,
      "Ġspent": 8328,
      "Ġheard": 8329,
      "Ã³lica": 8330,
      "Ġcerebral": 8331,
      "Ġrecognized": 8332,
      "tural": 8333,
      "ĠPC": 8334,
      "ĠVIH": 8335,
      "Ġpena": 8336,
      "uly": 8337,
      "Ġbron": 8338,
      "Ġreality": 8339,
      "Ġpareja": 8340,
      "ĠcrÃ©dito": 8341,
      "Ġmanner": 8342,
      "Ġcompleted": 8343,
      "Ġinterested": 8344,
      "ĠCos": 8345,
      "Ġempleo": 8346,
      "Ġhypo": 8347,
      "More": 8348,
      "Ġfif": 8349,
      "board": 8350,
      "Ġcielo": 8351,
      "Ġlarga": 8352,
      "Ġestablece": 8353,
      "aven": 8354,
      "Ġexperts": 8355,
      "Ġdollar": 8356,
      "tigo": 8357,
      "isation": 8358,
      "ayer": 8359,
      "ĠRoma": 8360,
      "ĠUK": 8361,
      "Ġconced": 8362,
      "Ġactualmente": 8363,
      "Ġextreme": 8364,
      "Ġfarmers": 8365,
      "Ġignor": 8366,
      "ĠconvirtiÃ³": 8367,
      "Ġvictim": 8368,
      "Most": 8369,
      "Ġforman": 8370,
      "Ġdescans": 8371,
      "ugu": 8372,
      "ĠObs": 8373,
      "Ġoffered": 8374,
      "cement": 8375,
      "Ġpint": 8376,
      "ĠMars": 8377,
      "ĠnÃºmeros": 8378,
      "Ġpedir": 8379,
      "pass": 8380,
      "ĠLan": 8381,
      "illing": 8382,
      "Ġcollege": 8383,
      "taining": 8384,
      "Ġdominio": 8385,
      "Ġalc": 8386,
      "Ġadvis": 8387,
      "ĠWhy": 8388,
      "IP": 8389,
      "zed": 8390,
      "Ġfine": 8391,
      "Ġocasion": 8392,
      "Ġpoderos": 8393,
      "Ġfacilities": 8394,
      "Ġconex": 8395,
      "ĠAre": 8396,
      "Ġespect": 8397,
      "ĠPeter": 8398,
      "Ġcarbono": 8399,
      "Ġescala": 8400,
      "bul": 8401,
      "cados": 8402,
      "ĠWild": 8403,
      "ĠhabrÃŃa": 8404,
      "Ġrazon": 8405,
      "Ġpermitir": 8406,
      "Ġlargely": 8407,
      "CE": 8408,
      "abb": 8409,
      "rese": 8410,
      "Ġcord": 8411,
      "Ġpoverty": 8412,
      "ĠllevÃ³": 8413,
      "mittee": 8414,
      "Ġgets": 8415,
      "cieron": 8416,
      "unction": 8417,
      "Ġru": 8418,
      "Many": 8419,
      "ili": 8420,
      "Ġrayos": 8421,
      "Ġhayan": 8422,
      "Ġinternal": 8423,
      "Ġinjury": 8424,
      "Ġsubstanti": 8425,
      "ĠCatholic": 8426,
      "vÃ¡": 8427,
      "Ã¡fico": 8428,
      "Ġbank": 8429,
      "According": 8430,
      "html": 8431,
      "Ġjusto": 8432,
      "Ġfollows": 8433,
      "Ġreducing": 8434,
      "Ġcloud": 8435,
      "Ġaumenta": 8436,
      "Ġpropiedades": 8437,
      "Ġescuelas": 8438,
      "Ġsuggested": 8439,
      "ĠSouthern": 8440,
      "Ġjefe": 8441,
      "SS": 8442,
      "Ġwet": 8443,
      "ĠcombinaciÃ³n": 8444,
      "ĠVietnam": 8445,
      "trans": 8446,
      "ĠMientras": 8447,
      "Ġsonido": 8448,
      "Ġtechnical": 8449,
      "Ġselection": 8450,
      "Ġcomprender": 8451,
      "Ġaquellas": 8452,
      "itage": 8453,
      "Ãºan": 8454,
      "Ġutilizando": 8455,
      "Ġcombusti": 8456,
      "Ġresponsable": 8457,
      "Ġalumnos": 8458,
      "Ġbed": 8459,
      "Ġgod": 8460,
      "phia": 8461,
      "alidad": 8462,
      "rogen": 8463,
      "Ġsubsequ": 8464,
      "Ġowners": 8465,
      ".;": 8466,
      "Ġconsecuencias": 8467,
      "ĠRusia": 8468,
      "cape": 8469,
      "Ġbend": 8470,
      "Ġcontienen": 8471,
      "Ġparent": 8472,
      "uman": 8473,
      "Ġrecorded": 8474,
      "Ġtierras": 8475,
      "gada": 8476,
      "Ġnegro": 8477,
      "Ġrub": 8478,
      "Ġvirtu": 8479,
      "Ġciudadanos": 8480,
      "ĠBus": 8481,
      "ey": 8482,
      "ĠLoc": 8483,
      "Ġling": 8484,
      "ĠPos": 8485,
      "Ġimproved": 8486,
      "ĠatrÃ¡s": 8487,
      "Ġcontinues": 8488,
      "Ġprepared": 8489,
      "ĠHistor": 8490,
      "Ġsale": 8491,
      "Ġchallenge": 8492,
      "ĠMicrosoft": 8493,
      "Ġformation": 8494,
      "don": 8495,
      "Ġbols": 8496,
      "Ġcorto": 8497,
      "Ġropa": 8498,
      "Ġcultiv": 8499,
      "Ġjurisdic": 8500,
      "icana": 8501,
      "Ġtechnique": 8502,
      "Ã³gico": 8503,
      "ĠAP": 8504,
      "ĠCur": 8505,
      "Ġconden": 8506,
      "ominal": 8507,
      "ĠGlobal": 8508,
      "Ġhur": 8509,
      "ĠhÃŃ": 8510,
      "Ġgreatest": 8511,
      "Gr": 8512,
      "Ġjoint": 8513,
      "Ġaquella": 8514,
      "Ġinfections": 8515,
      "Ġesclav": 8516,
      "Pe": 8517,
      "Ġdelante": 8518,
      "Ġpollution": 8519,
      "Ġcerem": 8520,
      "Ġbird": 8521,
      "Ġregarding": 8522,
      "band": 8523,
      "Ġpuerta": 8524,
      "mes": 8525,
      "ĠFort": 8526,
      "Hist": 8527,
      "Ġsosp": 8528,
      "tructure": 8529,
      "Ġprovocar": 8530,
      "Ġtrastornos": 8531,
      "TS": 8532,
      "ĠReport": 8533,
      "Ġoptions": 8534,
      "Ġmorning": 8535,
      "ĠobligaciÃ³n": 8536,
      "adelphia": 8537,
      "',": 8538,
      "Ġflag": 8539,
      "anced": 8540,
      "ĠAhora": 8541,
      "umes": 8542,
      "Ġraised": 8543,
      "%.": 8544,
      "Ġrecurr": 8545,
      "Ġofrecer": 8546,
      "ĠoÃŃdo": 8547,
      "amo": 8548,
      "down": 8549,
      "Ġdesen": 8550,
      "ÃŃmbol": 8551,
      "Ġdisap": 8552,
      "Ġbackground": 8553,
      "Ġrevolution": 8554,
      "zz": 8555,
      "izona": 8556,
      "Ġdebemos": 8557,
      "Ġpoll": 8558,
      "ĠColumbia": 8559,
      "aching": 8560,
      "Ġcardio": 8561,
      "Ġhabilidades": 8562,
      "Ð¾": 8563,
      "ĠTwo": 8564,
      "cepti": 8565,
      "Ġsaying": 8566,
      "Ġcardi": 8567,
      "bir": 8568,
      "Ġfi": 8569,
      "utor": 8570,
      "Ġparticipants": 8571,
      "ĠBook": 8572,
      "Tod": 8573,
      "cÃŃa": 8574,
      "urance": 8575,
      "Ġrespe": 8576,
      "ĠWomen": 8577,
      "Ġreaction": 8578,
      "ĠnaciÃ³n": 8579,
      "ĠBio": 8580,
      "etts": 8581,
      "Ġconfianza": 8582,
      "ĠpartÃŃculas": 8583,
      "Ġincap": 8584,
      "Ġhuesos": 8585,
      "Ġsober": 8586,
      "Ġestadounidenses": 8587,
      "Ġciclo": 8588,
      "Ġaconte": 8589,
      "agas": 8590,
      "Ġobvious": 8591,
      "tista": 8592,
      "Ġcerr": 8593,
      "Ġhija": 8594,
      "Ġindex": 8595,
      "wareness": 8596,
      "Ġready": 8597,
      "Ġdangerous": 8598,
      "fit": 8599,
      "Ġhue": 8600,
      "olved": 8601,
      "Ġtreatments": 8602,
      "icaz": 8603,
      "Ġprimarily": 8604,
      "ĠCorte": 8605,
      "Ġagricultural": 8606,
      "inta": 8607,
      "Ġexcept": 8608,
      "Ġlanguages": 8609,
      "Ġlinked": 8610,
      "Ġstrategy": 8611,
      "Ġportion": 8612,
      "Ġhour": 8613,
      "ĠVictor": 8614,
      "Ġesperar": 8615,
      "ĠprÃ¡cticas": 8616,
      "liam": 8617,
      "Ġofrec": 8618,
      "ĠLiga": 8619,
      "Ġcarta": 8620,
      "Ġjustific": 8621,
      "ciles": 8622,
      "Ġrepubl": 8623,
      "ĠBlan": 8624,
      "Ġliquid": 8625,
      "Other": 8626,
      "icks": 8627,
      "Ġvast": 8628,
      "Ġsalt": 8629,
      "ĠpasÃ³": 8630,
      "vedad": 8631,
      "ĠoperaciÃ³n": 8632,
      "Ġdoub": 8633,
      "Ġtampoco": 8634,
      "Ġinicial": 8635,
      "Ġaware": 8636,
      "ĠDu": 8637,
      "ĠHun": 8638,
      "Ġpurposes": 8639,
      "Ġcomponentes": 8640,
      "Ġexactly": 8641,
      "aver": 8642,
      "Ġfase": 8643,
      "atu": 8644,
      "Ġfranc": 8645,
      "Ġconcerns": 8646,
      "uciÃ³n": 8647,
      "xual": 8648,
      "umbre": 8649,
      "Ġharv": 8650,
      "ums": 8651,
      "ĠHaw": 8652,
      "Ġterapia": 8653,
      "ĠespÃŃritu": 8654,
      "Ġtroops": 8655,
      "ĠLatin": 8656,
      "igue": 8657,
      "ube": 8658,
      "ĠAcademy": 8659,
      "ote": 8660,
      "Ġsell": 8661,
      "ĠBrown": 8662,
      "Ġambient": 8663,
      "Ġindependencia": 8664,
      "IF": 8665,
      "pression": 8666,
      "Ġotherwise": 8667,
      "Ed": 8668,
      "zen": 8669,
      "Ġsar": 8670,
      "Ġoutput": 8671,
      "ĠCont": 8672,
      "arlos": 8673,
      "ferencias": 8674,
      "Ġcry": 8675,
      "Ġreflex": 8676,
      "ĠProfessor": 8677,
      "most": 8678,
      "Ġfra": 8679,
      "Ġseek": 8680,
      "Ġletters": 8681,
      "ĠAR": 8682,
      "ĠNaciones": 8683,
      "ĠPsych": 8684,
      "Ġmentioned": 8685,
      "ĠHosp": 8686,
      "aches": 8687,
      "ĠMart": 8688,
      "ulado": 8689,
      "Ġemb": 8690,
      "Ġinterf": 8691,
      "Ġtestim": 8692,
      "ĠTem": 8693,
      "ĠForm": 8694,
      "ĠConserv": 8695,
      "Ġsustainable": 8696,
      "anzas": 8697,
      "alog": 8698,
      "Ġtran": 8699,
      "aliza": 8700,
      "Ġpieces": 8701,
      "Ġfinally": 8702,
      "Ġfunding": 8703,
      "Ġattacks": 8704,
      "elled": 8705,
      "Ġstudied": 8706,
      "Ġhermanos": 8707,
      "Ġexcell": 8708,
      "Ġhacerse": 8709,
      "normal": 8710,
      "Ġwound": 8711,
      "Ġgusta": 8712,
      "ĠâĢ¢": 8713,
      "Ġusuarios": 8714,
      "Ġtard": 8715,
      "etal": 8716,
      "Ġhundreds": 8717,
      "Ġsuici": 8718,
      "alizada": 8719,
      "Ġbuy": 8720,
      "Ġvacuna": 8721,
      "ĠCuba": 8722,
      "last": 8723,
      "Ġecosystem": 8724,
      "Ġmiedo": 8725,
      "net": 8726,
      "taba": 8727,
      "Ġinfect": 8728,
      "Ġtransporte": 8729,
      "Ġcurso": 8730,
      "Ġpotencial": 8731,
      "acing": 8732,
      "aterra": 8733,
      "Ġdistrict": 8734,
      "pite": 8735,
      "umber": 8736,
      "ĠFeder": 8737,
      "Ġagencies": 8738,
      "Ġpolice": 8739,
      "ĠdeclaraciÃ³n": 8740,
      "ĠFer": 8741,
      "ĠClin": 8742,
      "Ġdominicano": 8743,
      "Ġslightly": 8744,
      "Ġrandom": 8745,
      "lash": 8746,
      "Ġperiods": 8747,
      "ĠBoth": 8748,
      "Ġtriun": 8749,
      "celer": 8750,
      "agu": 8751,
      "iese": 8752,
      "ĠevoluciÃ³n": 8753,
      "Ġnegoci": 8754,
      "Â».": 8755,
      "Br": 8756,
      "ĠmisiÃ³n": 8757,
      "Ġclaims": 8758,
      "Ab": 8759,
      "Col": 8760,
      "anges": 8761,
      "Ġmomentos": 8762,
      "Ġconnected": 8763,
      "omina": 8764,
      "oted": 8765,
      "Ã³rm": 8766,
      "Ġsexuales": 8767,
      "Ġesposa": 8768,
      "Ġresc": 8769,
      "aker": 8770,
      "Ġsosten": 8771,
      "ĠES": 8772,
      "cionales": 8773,
      "Ġdesea": 8774,
      "teenth": 8775,
      "ĠLiber": 8776,
      "Ġsetting": 8777,
      "coln": 8778,
      "Ġtested": 8779,
      "ĠapariciÃ³n": 8780,
      "ML": 8781,
      "cor": 8782,
      "portation": 8783,
      "ĠJust": 8784,
      "Ġapenas": 8785,
      "grado": 8786,
      "icanos": 8787,
      "UE": 8788,
      "Ġmos": 8789,
      "ĠfÃºtbol": 8790,
      "Ġhero": 8791,
      "Ġwarming": 8792,
      "Ġunidades": 8793,
      "glaterra": 8794,
      "Ġcontaining": 8795,
      "Ġeasier": 8796,
      "Ġcomercial": 8797,
      "Ġeggs": 8798,
      "Â©": 8799,
      "Ġiba": 8800,
      "Ġhappens": 8801,
      "Ġtransmiti": 8802,
      "Ġleader": 8803,
      "Ġappeared": 8804,
      "Ġcollected": 8805,
      "jud": 8806,
      "uelo": 8807,
      "Ġcompetencia": 8808,
      "Ġneighbor": 8809,
      "Ġinput": 8810,
      "doc": 8811,
      "Ġlooks": 8812,
      "Ġexplan": 8813,
      "Ġexplica": 8814,
      "ĠalimentaciÃ³n": 8815,
      "Ġdificultad": 8816,
      "Ġdificultades": 8817,
      "achus": 8818,
      "Ġmeasured": 8819,
      "Ġenjoy": 8820,
      "Ġdiario": 8821,
      "Ġcenturies": 8822,
      "Ġmedications": 8823,
      "Ġcau": 8824,
      "Ġnombres": 8825,
      "Ġemergencia": 8826,
      "icit": 8827,
      "ĠPhiladelphia": 8828,
      "erÃ¡": 8829,
      "Ġbrill": 8830,
      "Ġinvolves": 8831,
      "Ġfailed": 8832,
      "Ġdouble": 8833,
      "Ġvec": 8834,
      "ĠMath": 8835,
      "Ġefect": 8836,
      "uridad": 8837,
      "ĠLong": 8838,
      "ĠNatural": 8839,
      "Ġheight": 8840,
      "Ġconocimientos": 8841,
      "Ġcrops": 8842,
      "ĠvÃŃctimas": 8843,
      "lav": 8844,
      "ĠAy": 8845,
      "uegos": 8846,
      "ĠNature": 8847,
      "Ġscreen": 8848,
      "Ġsatell": 8849,
      "Ġpig": 8850,
      "ĠLar": 8851,
      "Ġmeat": 8852,
      "Desde": 8853,
      "graphy": 8854,
      "Ġquim": 8855,
      "ĠBible": 8856,
      "Ġresponsibility": 8857,
      "Ġsexo": 8858,
      "Ġconceptos": 8859,
      "Ġcorrup": 8860,
      "from": 8861,
      "enario": 8862,
      "ĠIP": 8863,
      "ĠScienti": 8864,
      "Ġmatrimonio": 8865,
      "ste": 8866,
      "Ġsurge": 8867,
      "ĠConvenciÃ³n": 8868,
      "Ġjudicial": 8869,
      "Ġdicen": 8870,
      "iosas": 8871,
      "Ġexperiences": 8872,
      "ĠdepresiÃ³n": 8873,
      "Ġfract": 8874,
      "Ġalguno": 8875,
      "Ġvenezolano": 8876,
      "Ġama": 8877,
      "road": 8878,
      "ĠStudents": 8879,
      "alda": 8880,
      "icon": 8881,
      "Ġdipl": 8882,
      "Ġinvestigaciones": 8883,
      "ĠrevoluciÃ³n": 8884,
      "Ġefic": 8885,
      "ablemente": 8886,
      "Ġresponder": 8887,
      "Ġspot": 8888,
      "Ġflat": 8889,
      "Ġexplicar": 8890,
      "Ġrapidly": 8891,
      "ĠNic": 8892,
      "Ġnecesitar": 8893,
      "Ġaparecen": 8894,
      "Ġdetailed": 8895,
      "ĠJehovÃ¡": 8896,
      "ĠsÃŃmbol": 8897,
      "Ġrespuestas": 8898,
      "dez": 8899,
      "Ġinser": 8900,
      "Ġcollabor": 8901,
      "iner": 8902,
      "Ġreb": 8903,
      "Ġsalida": 8904,
      "Ġadvice": 8905,
      "ĠClar": 8906,
      "ĠGen": 8907,
      "ĠYan": 8908,
      "Ġdiscovery": 8909,
      "Ġlectura": 8910,
      "ectiva": 8911,
      "Ġmotivo": 8912,
      "Ġdocuments": 8913,
      "ĠPalest": 8914,
      "Ġesfuerzos": 8915,
      "Ġbegins": 8916,
      "Ġactos": 8917,
      "Ġcalcio": 8918,
      "Ġcontrolled": 8919,
      "Ġvacun": 8920,
      "Ġritmo": 8921,
      "ativos": 8922,
      "ĠCON": 8923,
      "Ġfiscal": 8924,
      "Ġcircunstancias": 8925,
      "ĠWood": 8926,
      "Ġpersist": 8927,
      "Ġdarle": 8928,
      "Ġvitamina": 8929,
      "Ġadecuada": 8930,
      "Ġforests": 8931,
      "ĠGeorg": 8932,
      "Ġhubo": 8933,
      "ader": 8934,
      "Ġyouth": 8935,
      "Ġveget": 8936,
      "Ġescuch": 8937,
      "cimientos": 8938,
      "Ġadul": 8939,
      "going": 8940,
      "Ġpound": 8941,
      "Ġconflict": 8942,
      "Ġfrequency": 8943,
      "estas": 8944,
      "Ġinternet": 8945,
      "Ġfiles": 8946,
      "Ġtasa": 8947,
      "ĠUR": 8948,
      "Ġclientes": 8949,
      "ĠArizona": 8950,
      "ĠAbra": 8951,
      "ĠfÃ¡cilmente": 8952,
      "Ġsamples": 8953,
      "ĠproteÃŃnas": 8954,
      "Ġstock": 8955,
      "Ġequilibrio": 8956,
      "Ġaper": 8957,
      "Ġprevention": 8958,
      "ĠUnidas": 8959,
      "Ġfelt": 8960,
      "Ġadvoc": 8961,
      "Ġpurs": 8962,
      "Ġinstrumentos": 8963,
      "Ġacademic": 8964,
      "cum": 8965,
      "Ġtuvieron": 8966,
      "Ġpromote": 8967,
      "Ġcolonial": 8968,
      "Ġjuez": 8969,
      "Ġpecado": 8970,
      "omal": 8971,
      "ĠCro": 8972,
      "undos": 8973,
      "Ġconsists": 8974,
      "cript": 8975,
      "uses": 8976,
      "inson": 8977,
      "Ġdoctors": 8978,
      "ĠdefiniciÃ³n": 8979,
      "iling": 8980,
      "Ġlooked": 8981,
      "ĠOnce": 8982,
      "nic": 8983,
      "Ġmaneras": 8984,
      "Ġsignal": 8985,
      "Ġcontribuy": 8986,
      "ĠEL": 8987,
      "psia": 8988,
      "Ġhearing": 8989,
      "ĠMountain": 8990,
      "ĠCommittee": 8991,
      "Ġflight": 8992,
      "Ġestructuras": 8993,
      "Ġasegurar": 8994,
      "Ġbiblio": 8995,
      "Ġimpar": 8996,
      "Ġplat": 8997,
      "Ġphase": 8998,
      "Ġonto": 8999,
      "Ã³mago": 9000,
      "Ġcomunidades": 9001,
      "Ġconcerned": 9002,
      "adrid": 9003,
      "Ġjobs": 9004,
      "Ġwave": 9005,
      "ificado": 9006,
      "Ġaplicaciones": 9007,
      "Ġviews": 9008,
      "Ġcomplicaciones": 9009,
      "Ġteeth": 9010,
      "Ġcaball": 9011,
      "ĠOper": 9012,
      "Ġmusical": 9013,
      "Ġdivided": 9014,
      "Ġfond": 9015,
      "Ġenfo": 9016,
      "ĠHear": 9017,
      "Ġterres": 9018,
      "Ġoperating": 9019,
      "Ġcolleagues": 9020,
      "Am": 9021,
      "uci": 9022,
      "ĠBrasil": 9023,
      "Ġdesap": 9024,
      "Ġarbit": 9025,
      "Ġsubjects": 9026,
      "Ġsimult": 9027,
      "Ġbright": 9028,
      "Ġtopic": 9029,
      "ĠXIX": 9030,
      "teras": 9031,
      "Ġrealizado": 9032,
      "ĠAmericana": 9033,
      "Ġnacionales": 9034,
      "Ġempezar": 9035,
      "Ġinmediato": 9036,
      "ĠDivision": 9037,
      "Ġreceptor": 9038,
      "achusetts": 9039,
      "Ġrestor": 9040,
      "Ġstro": 9041,
      "ginas": 9042,
      "Ġallowing": 9043,
      "ĠfilosofÃŃa": 9044,
      "UT": 9045,
      "Ġbes": 9046,
      "estre": 9047,
      "tados": 9048,
      "Ġplayed": 9049,
      "Ġreduction": 9050,
      "Ġmagnitud": 9051,
      "ĠImperio": 9052,
      "Ġaprovech": 9053,
      "teen": 9054,
      "ĠPablo": 9055,
      "Ġataques": 9056,
      "Cont": 9057,
      "Ġseed": 9058,
      "ensiones": 9059,
      "Ġtratado": 9060,
      "Ġmainly": 9061,
      "Ġkinds": 9062,
      "ĠmÃŃnimo": 9063,
      "IB": 9064,
      "Ġsuplement": 9065,
      "iculum": 9066,
      "oral": 9067,
      "Ġfluid": 9068,
      "Ġproperly": 9069,
      "roid": 9070,
      "ĠÃ©stos": 9071,
      "Ġradical": 9072,
      "ĠClim": 9073,
      "IÃĵN": 9074,
      "ĠAccess": 9075,
      "Ġsched": 9076,
      "!!": 9077,
      "'.": 9078,
      "actos": 9079,
      "ĠGol": 9080,
      "Ġdepending": 9081,
      "Dis": 9082,
      "olid": 9083,
      "ĠAL": 9084,
      "Ġsuj": 9085,
      "ĠInglaterra": 9086,
      "Ġmoon": 9087,
      "Ġregiones": 9088,
      "Ġpractical": 9089,
      "Ġproteg": 9090,
      "ĠSalv": 9091,
      "Ġgovernments": 9092,
      "?âĢĿ": 9093,
      "Ġsides": 9094,
      "Ġeffectively": 9095,
      "liament": 9096,
      "rey": 9097,
      "Ġvino": 9098,
      "ĠestÃ³mago": 9099,
      "itness": 9100,
      "Ġgarden": 9101,
      "Ġmuse": 9102,
      "ĠdivisiÃ³n": 9103,
      "ĠtÃŃp": 9104,
      "Ġbow": 9105,
      "opol": 9106,
      "opera": 9107,
      "sea": 9108,
      "iaciÃ³n": 9109,
      "vard": 9110,
      "Ùİ": 9111,
      "Ġvalid": 9112,
      "Ġprocessing": 9113,
      "Ġherramientas": 9114,
      "isions": 9115,
      "ĠCond": 9116,
      "ĠPage": 9117,
      "ĠÃ¡tom": 9118,
      "Ġhabitantes": 9119,
      "ictionary": 9120,
      "Ġdrinking": 9121,
      "real": 9122,
      "Ġasistencia": 9123,
      "Ġaceler": 9124,
      "Ġentorno": 9125,
      "Ġemper": 9126,
      "Ġobed": 9127,
      "estiv": 9128,
      "Ġinches": 9129,
      "ĠItalia": 9130,
      "Ġpropiet": 9131,
      "Ġasum": 9132,
      "Ġcolores": 9133,
      "Ġpulmones": 9134,
      "ĠSuch": 9135,
      "Ġlejos": 9136,
      "ĠUniÃ³n": 9137,
      "ĠestrÃ©s": 9138,
      "Ġpenal": 9139,
      "xi": 9140,
      "otes": 9141,
      "Ġdirecta": 9142,
      "Ġparticles": 9143,
      "Ġconcepts": 9144,
      "airs": 9145,
      "Ġfacilit": 9146,
      "Ġlatter": 9147,
      "Ġidentificar": 9148,
      "Ġaceite": 9149,
      "ĠdetrÃ¡s": 9150,
      "Ġmac": 9151,
      "Ã³f": 9152,
      "Ġcorn": 9153,
      "Ġagentes": 9154,
      "Ġmodelos": 9155,
      "Ġcontained": 9156,
      "Ġcertainly": 9157,
      "ĠClass": 9158,
      "Ġselected": 9159,
      "ĠperiÃ³d": 9160,
      "Ġscar": 9161,
      "ĠSud": 9162,
      "Ġsignos": 9163,
      "Ġfigures": 9164,
      "Ġwife": 9165,
      "ometr": 9166,
      "Ġobtained": 9167,
      "Ġestudiar": 9168,
      "Ġdesplaz": 9169,
      "sible": 9170,
      "itter": 9171,
      "Ã³x": 9172,
      "Ġgastos": 9173,
      "ĠfrancÃ©s": 9174,
      "bled": 9175,
      "Ġadecuado": 9176,
      "Ġdespite": 9177,
      "heimer": 9178,
      "ollow": 9179,
      "Ġelectrical": 9180,
      "ĠToday": 9181,
      "AA": 9182,
      "CL": 9183,
      "ĠdÃ³nde": 9184,
      "inario": 9185,
      "Ġstone": 9186,
      "Ġproteins": 9187,
      "Ġnegocios": 9188,
      "mad": 9189,
      "Ġgames": 9190,
      "ĠCat": 9191,
      "Ġconstituye": 9192,
      "ĠBill": 9193,
      "Ġinterv": 9194,
      "Ġshowing": 9195,
      "lers": 9196,
      "rique": 9197,
      "Ġadvers": 9198,
      "Ġrot": 9199,
      "Ġsiglas": 9200,
      "Ġcampe": 9201,
      "Ġcredit": 9202,
      "Ġadicional": 9203,
      "ials": 9204,
      "stand": 9205,
      "Ġbrind": 9206,
      "Ġsoldiers": 9207,
      "ĠConstitution": 9208,
      "Ġdiciendo": 9209,
      "Ġunless": 9210,
      "ĠST": 9211,
      "Ġreno": 9212,
      "iosos": 9213,
      "ĠStudies": 9214,
      "hel": 9215,
      "Ġrebel": 9216,
      "ione": 9217,
      "Ġparto": 9218,
      "ĠBush": 9219,
      "ext": 9220,
      "Ġmedicina": 9221,
      "ĠpermitiÃ³": 9222,
      "Ġlatest": 9223,
      "Ġexplained": 9224,
      "Ġsyndrome": 9225,
      "Ġfiebre": 9226,
      "amblea": 9227,
      "Ġrough": 9228,
      "angl": 9229,
      "Ġpure": 9230,
      "ĠMedia": 9231,
      "atado": 9232,
      "ĠGl": 9233,
      "Ġprotected": 9234,
      "Ġexplains": 9235,
      "Ġalcance": 9236,
      "Ġprensa": 9237,
      "Ġsort": 9238,
      "ĠTV": 9239,
      "ĠHom": 9240,
      "Ġjour": 9241,
      "Ġregistro": 9242,
      "Ġprofesionales": 9243,
      "ĠJeff": 9244,
      "EF": 9245,
      "but": 9246,
      "ni": 9247,
      "Ġbeauti": 9248,
      "Ġmeant": 9249,
      "Ġoste": 9250,
      "Ġwildlife": 9251,
      "ĠDisease": 9252,
      "ĠmÃ¡quina": 9253,
      "fish": 9254,
      "ĠTreat": 9255,
      "Ġintel": 9256,
      "Ġrelevant": 9257,
      "Ġterreno": 9258,
      "ĠharÃ¡": 9259,
      "olut": 9260,
      "ĠHit": 9261,
      "Ġsiglos": 9262,
      "Ġpossess": 9263,
      "Ġerup": 9264,
      "Ġprofession": 9265,
      "Ġencu": 9266,
      "Ġmaes": 9267,
      "Ġcomponent": 9268,
      "Ġusuario": 9269,
      "kers": 9270,
      "Ġ?": 9271,
      "omÃŃa": 9272,
      "ĠFurther": 9273,
      "Ġexternal": 9274,
      "ĠDen": 9275,
      "Ġatle": 9276,
      "Ġresidents": 9277,
      "Ġidioma": 9278,
      "Ġbol": 9279,
      "Ġplate": 9280,
      "Ġcostos": 9281,
      "tegr": 9282,
      "enciones": 9283,
      "ĠMarÃŃa": 9284,
      "Ġcoastal": 9285,
      "onio": 9286,
      "Ġrenew": 9287,
      "ĠOut": 9288,
      "Ġinterna": 9289,
      "Ġconsiderado": 9290,
      "Ġtomando": 9291,
      "Ġprofesor": 9292,
      "Ġtiny": 9293,
      "Ġpuso": 9294,
      "Ġrefug": 9295,
      "Ġcif": 9296,
[...]
